FD
03
F8
FA
02
FD
01
0C
0A
FC
F4
06
04
07
FA
F9
02
F4
03
09
00
08
03
F7
0D
09
07
09
00
F6
03
F7
01
04
02
FE
0A
06
F8
01
F7
F8
02
F8
0B
FD
FF
F9
02
FC
F3
04
FF
09
0C
FB
00
05
FB
FA
01
FD
FD
FD
09
02
00
02
F7
02
FA
FD
FE
0B
FA
09
08
06
FB
09
FD
04
FA
06
09
05
F8
06
FA
FD
01
06
06
0C
FB
04
05
00
00
F3
FC
F7
03
FF
FE
0A
FC
03
FC
FF
05
08
07
F9
08
04
09
FB
F6
FE
FA
03
03
01
07
00
F9
F7
04
06
06
FC
FA
FD
FF
06
05
08
04
04
FE
04
09
05
00
F4
00
04
06
05
FE
FD
0B
07
09
00
F8
F9
FC
FF
09
01
FC
01
08
FA
FD
FA
01
01
00
03
04
F8
F4
FA
01
FB
F4
FD
FE
FC
08
06
FA
FC
F9
F5
FB
06
FF
FF
F8
05
FE
FD
02
04
06
FD
09
07
04
02
06
05
F5
FC
00
02
F9
FA
FF
FD
F6
08
02
F7
04
04
00
08
FC
FF
05
FC
08
FB
08
F6
02
FA
FE
FA
02
08
FE
FE
FA
03
00
FD
F9
FC
FF
FF
FA
00
FF
00
0C
07
03
FA
07
00
FB
FA
02
FC
F9
F7
F9
07
03
FE
05
F6
F9
08
FD
F6
04
02
02
FC
07
06
FC
00
07
0B
FC
04
FE
FA
F7
FC
FB
0C
FB
04
FF
F8
FB
05
04
FA
F8
F8
05
FC
F3
02
02
01
F8
FD
FB
FC
FC
01
FF
FC
04
F5
F7
FA
01
FE
06
FE
F9
00
03
FD
02
06
06
09
FA
07
FF
00
05
09
02
04
04
FE
06
06
F7
F7
FF
FF
03
00
FE
FC
FD
FA
F8
05
05
F4
09
F4
F9
FE
03
F8
FC
0A
07
F5
06
06
00
F9
F9
06
01
FE
FD
04
08
F8
07
01
0D
05
FB
FF
06
08
00
06
05
00
00
FB
07
02
02
F6
FF
06
FF
06
FB
F5
02
F8
0C
01
FC
02
FF
03
FC
01
07
03
FB
FB
03
FC
09
04
04
FA
08
06
06
FC
F7
FC
0C
F6
F6
FD
04
00
FF
FF
00
04
02
07
00
01
04
FC
F9
09
03
05
02
F7
F4
F7
04
F8
06
FB
FA
FA
F8
04
08
06
FE
FB
F8
09
F9
04
00
FF
06
F8
01
FE
00
01
FE
FA
FF
00
04
F8
FE
F6
FD
FB
00
FA
F8
00
00
02
F8
F9
03
F7
FD
02
01
08
FF
00
F7
F6
00
F8
0B
FF
FF
F9
FD
00
06
08
06
FA
02
F8
02
02
02
07
FF
FD
07
FC
05
08
06
02
FB
04
05
FC
FE
F9
0A
03
0A
05
F7
02
FD
08
00
04
F9
01
05
08
08
01
F8
F5
09
00
FD
07
F4
05
07
FD
FA
04
F9
05
F9
F8
FC
FF
F8
06
F6
FA
00
01
F7
FE
F9
04
FA
07
01
08
03
04
F9
FE
FD
FB
F7
01
F9
08
F9
01
07
08
FA
01
06
01
F9
03
F8
FB
00
0C
02
02
F8
F7
09
04
FA
0D
FA
05
FB
05
08
F5
FE
FB
F8
03
06
FC
F6
07
F5
F4
FF
07
02
08
FE
F7
08
FB
FC
FF
F5
F6
04
09
01
00
03
F7
FC
FA
FA
F8
03
07
FD
F9
02
06
0B
03
FD
FA
0B
04
0B
03
F9
F7
F7
F8
05
02
FE
F7
02
00
04
F6
FC
FB
07
06
FB
F6
F6
FB
06
03
FD
FD
05
05
FC
FA
09
03
F7
FF
F6
02
F6
00
FA
FE
F9
FB
06
F7
05
06
FB
02
FC
00
01
03
06
06
08
07
04
FA
05
FE
FB
FD
F9
05
05
FC
FA
05
FC
01
F5
F5
05
FB
FD
03
00
0A
02
FA
04
0A
FC
FB
FC
FD
06
FB
FE
FE
FB
FE
05
F7
07
08
00
FD
0C
05
06
FB
03
FB
F6
FF
F8
F9
F9
FF
0A
01
04
FF
FE
F6
0C
FD
0A
FF
FB
FE
FE
FD
FA
02
01
09
0C
03
07
09
05
05
FF
0B
03
F9
04
06
FE
FC
03
F5
FA
08
08
F9
F9
FB
00
04
02
04
FF
03
04
08
FD
04
07
FC
08
03
06
FF
03
09
F7
FF
04
00
FB
07
FE
FB
FE
FB
09
FF
06
FA
00
FB
03
05
F9
0A
FB
07
06
08
FE
07
01
02
FF
08
01
07
09
06
FD
01
08
0D
FE
F7
FF
07
FC
FD
03
F7
FB
F6
06
05
01
01
F9
F5
FD
01
0B
F9
03
F8
FB
FD
F8
F8
F6
FE
01
00
03
F9
0B
FC
05
06
09
01
0C
09
FC
F7
07
02
0A
FB
FB
F7
FB
FD
FB
02
F7
F8
00
03
F7
FA
F9
08
0B
07
04
05
06
04
07
01
FF
F7
05
FB
04
01
FE
FA
FB
09
02
FE
FF
06
00
F9
FE
FA
08
08
F7
F8
F8
05
F7
F8
08
F8
FC
FA
02
FD
FC
03
F9
FF
F9
FB
04
F6
01
0B
03
09
F9
08
FE
05
F8
08
F5
00
05
F7
03
F6
06
FF
F8
0A
01
01
F7
02
FF
05
FE
FB
05
08
FA
FE
08
03
04
01
FE
F9
07
05
08
05
06
09
FA
06
FD
F9
07
FC
F8
00
FC
FA
FD
04
FA
08
FA
07
0A
F7
03
05
02
07
03
06
03
0B
01
04
05
F8
F8
07
FB
0A
05
03
03
03
07
02
FF
00
07
00
03
F6
F9
F8
F8
FB
FF
07
FC
FA
01
00
03
01
01
01
FE
04
FB
06
08
03
F6
06
00
FD
06
F7
FA
05
07
02
FF
03
FB
0C
0A
FF
06
FE
F9
05
02
00
FB
04
07
FA
FF
0B
07
03
FE
FA
F7
FD
FA
FC
F7
FF
01
01
FB
02
F6
FB
01
01
FE
02
02
05
F9
09
FE
F8
F9
05
09
FF
01
FF
09
07
F7
F9
00
F6
F7
01
F8
08
FF
03
00
F8
09
FE
04
FE
02
F8
02
FB
06
03
02
00
FB
F9
F9
F8
05
FA
F7
09
00
06
04
F8
FC
01
FB
FC
FE
04
FA
F7
FB
FC
FF
09
05
FE
FC
02
FB
04
FC
FD
F8
FE
04
FF
F9
09
01
F7
FF
FC
04
06
08
FC
02
05
FB
FC
FC
FA
01
F9
FC
03
06
FA
FD
09
01
FC
04
FE
FA
F7
05
00
F9
06
00
03
FE
FC
FA
03
04
01
F9
F9
FF
F7
FF
FF
05
F7
00
FC
05
01
09
00
08
FB
FC
F9
02
07
FA
0B
0B
09
F9
F8
09
05
05
05
03
02
F8
FD
FA
07
00
FB
FD
05
FD
02
F7
FE
06
F7
09
03
04
F6
FC
02
06
F8
01
FB
FF
02
05
09
04
FF
07
06
08
FD
03
FC
F8
01
03
FC
F6
02
F9
01
F6
08
00
03
F9
00
FE
09
03
07
FA
00
FB
07
01
05
00
09
00
F8
08
04
FC
08
08
F8
07
05
F9
0A
F6
07
F7
F7
08
0B
FB
02
00
FA
FD
F7
02
01
F7
FA
F6
FF
09
03
09
FE
03
03
F8
0A
05
04
01
03
01
06
FE
FA
07
00
F8
F9
F6
04
FB
07
08
FB
00
F8
03
FF
03
03
01
07
01
F7
FE
02
06
F7
06
00
02
04
03
04
F9
FE
FB
03
05
FA
F9
04
02
06
FB
F8
FC
F8
09
FB
03
FE
F9
F8
F9
06
04
FE
F9
09
05
01
09
04
08
08
01
02
07
FA
FA
FE
02
FF
06
F8
FE
08
09
01
FB
FD
FE
05
F8
F7
07
02
F9
06
08
FE
01
FC
F8
07
FB
07
03
FC
05
01
FD
08
06
03
F8
F9
F9
FD
06
FC
FC
FB
F7
06
00
03
FD
FD
05
08
FD
03
09
FC
F9
03
F7
01
FE
F9
FA
FD
F8
F7
05
07
02
04
09
FF
00
04
FC
F8
09
F7
09
03
FA
FC
FF
05
F9
FE
F8
F8
FC
01
08
00
0A
F6
F7
04
09
06
02
08
FF
01
00
03
00
FF
01
02
FE
00
FA
03
09
08
02
04
08
05
06
F7
08
03
08
FD
09
01
02
FD
FC
FC
06
02
03
FE
FE
F8
06
03
02
FA
FB
FD
00
F9
FC
01
06
04
08
F9
09
FE
03
FA
05
F8
FE
0C
02
F7
01
04
00
03
FA
07
05
FD
01
06
F8
F8
FC
FD
FD
00
01
F7
01
0B
FE
02
04
FF
F9
F8
FC
05
F6
F8
FC
F7
FB
FE
07
01
F9
FE
06
09
08
FA
FE
FD
F7
09
08
07
F9
07
08
FA
FE
FD
FB
09
FD
03
FC
01
FB
04
FA
04
04
F7
FB
01
FC
FF
F9
08
03
FD
06
FF
06
FF
01
FE
08
F8
F8
02
00
FD
FB
F7
03
FA
FE
02
01
FC
FD
FB
02
F9
06
06
07
02
F7
03
07
07
F6
F6
05
05
03
06
02
08
FE
03
FF
0A
FD
FB
FC
FC
FB
F7
F9
07
05
F8
FB
FF
02
FE
04
FA
FA
04
FE
03
FE
FC
F8
FF
FB
04
00
FF
08
FE
F8
00
00
07
02
FF
06
03
00
FD
01
FB
04
04
07
07
01
FE
09
09
F9
FD
06
06
07
FB
08
05
09
00
01
07
09
05
FA
FE
06
F9
02
01
FC
FB
FF
FE
F9
FC
00
08
0A
02
03
03
FE
F6
FF
03
07
06
04
04
00
FA
FC
FD
FE
01
FE
F7
07
FB
FA
04
FD
01
03
04
01
FF
FB
F9
07
FF
FC
FE
00
03
01
FD
06
02
09
FD
00
00
FE
F9
09
07
FA
08
05
FA
02
04
F7
0C
08
02
05
04
FD
02
FF
03
09
FA
06
F8
FB
09
04
F9
FF
04
F6
07
03
03
03
FF
07
FB
FB
F7
F9
FB
02
02
05
FA
07
05
FE
FB
03
02
02
FE
0B
FA
F8
02
F7
07
07
FD
FF
FB
F9
FC
F9
04
00
04
FE
03
03
FF
06
06
02
01
02
FD
FD
F6
0A
01
00
03
FA
07
FE
07
FE
FF
05
05
01
F7
F7
F8
00
03
06
FB
0C
02
05
F9
FA
07
04
01
FA
04
F8
04
F9
05
FA
08
09
F7
F7
FB
FD
FB
04
FA
FB
03
02
FC
FF
FC
04
05
FB
08
FC
06
FD
0C
01
F8
0A
03
04
02
04
FB
FC
F8
F9
07
02
FA
04
FF
06
F7
06
08
05
0D
FE
FF
F8
05
FE
FC
FD
FF
FA
F8
07
02
02
F9
00
05
F8
05
F8
08
FA
FF
01
FA
F8
04
FB
FA
00
03
FC
FE
06
FF
F7
F6
F8
F7
05
05
06
F9
F7
04
08
FB
FD
FA
FE
0A
00
09
03
02
FB
FD
FD
03
06
FF
07
08
07
09
04
FF
FF
FA
0B
FC
F9
06
05
04
03
07
06
04
00
03
00
09
03
06
04
02
FD
05
05
F6
00
05
03
03
05
F8
07
04
F8
FC
05
05
FE
0A
06
0B
FF
FA
FE
07
03
FE
05
FD
FD
02
07
07
F6
FD
F8
FC
F8
01
04
01
02
FE
04
00
06
FE
FD
FF
09
09
07
FC
FB
F9
05
06
FB
F9
FE
04
06
F9
FA
F7
04
05
02
FD
F9
07
08
F7
FB
01
08
F8
00
02
F8
03
07
F8
F9
07
F8
FB
FC
F9
06
FF
03
04
02
07
08
F9
FB
FC
07
FC
FF
07
FB
FC
FE
FE
03
09
FE
01
08
F7
FF
FD
07
03
07
FB
F8
03
08
04
FC
03
FE
FC
FE
F8
02
00
FE
FF
FC
FE
FA
00
F8
FF
06
00
04
04
01
02
07
FD
FE
FD
F7
06
00
05
05
09
03
F9
03
FA
02
02
F6
0A
02
09
00
01
F6
09
01
00
F6
FC
09
FB
FF
FB
05
04
F7
FF
00
FF
F9
FC
00
FD
F8
00
FA
FE
09
06
FA
01
07
07
FD
09
FE
F8
05
03
F8
00
00
04
04
F8
07
09
08
00
07
F9
FE
01
FF
07
08
01
04
05
F7
00
FF
F9
F9
FE
FE
07
0A
FA
FB
02
04
FC
FB
F7
00
FE
F7
04
00
FF
FD
08
07
FC
08
03
06
F9
FC
08
F9
F8
04
08
FE
FE
09
FE
F8
03
05
02
02
09
FD
FD
FD
07
09
F7
FF
FC
FB
01
FC
0A
01
06
07
03
FB
01
02
09
09
F9
FF
03
09
FA
F8
02
F9
04
01
FB
FB
06
FA
00
F9
F9
FD
F7
05
FF
06
FA
03
05
FB
F7
F8
00
FC
FD
FB
03
08
FD
03
02
08
04
09
FF
FD
F9
FF
FE
09
FC
FC
FD
04
04
FC
04
F8
FE
FA
00
06
07
FF
00
F9
02
06
03
FA
08
F9
FA
09
FD
08
05
FE
01
FA
04
02
FB
04
F9
FB
F7
06
FE
FE
06
FA
01
02
FF
03
06
09
FA
F6
09
F9
07
06
07
FF
FF
01
FC
FD
FE
02
07
09
09
04
03
FC
FF
04
03
09
FF
FF
F7
08
F9
05
04
F9
04
F9
05
05
03
02
02
FE
06
06
FC
F7
F9
F9
F7
02
F7
05
FC
08
07
03
FD
FA
01
FC
FD
FF
FF
08
05
FC
F8
08
07
FD
F8
07
01
03
01
F9
F9
FD
03
07
FF
00
00
06
FF
FE
F7
02
07
01
00
03
03
04
06
02
FE
F8
FE
FC
FB
FA
0A
05
FE
09
FD
04
02
FE
F6
F8
FE
09
FD
00
FB
03
01
08
FB
FD
F9
00
04
01
FD
FD
F7
FE
07
03
04
FF
F7
FE
FD
00
02
FB
00
FC
F8
01
00
05
0A
04
FF
FA
FE
FE
FD
FD
FC
F6
02
07
09
F8
F7
F8
FB
F8
02
03
FA
04
F6
FA
FD
01
FD
05
02
F6
02
09
08
02
07
09
FD
00
FC
00
09
FC
F6
FE
07
FE
07
0B
01
08
08
FD
FE
02
FD
00
02
FB
05
FE
F9
F7
07
09
02
FE
08
FF
07
F5
FB
03
FA
FF
F5
0B
0A
FC
FF
F5
09
F9
FC
FA
FF
08
FE
0B
FD
FC
F9
04
FC
FB
00
FA
FC
F9
08
06
F6
04
FD
FE
F9
0B
F9
02
FB
F8
FF
FA
07
FF
F8
FA
02
F5
FB
F9
00
FD
04
FA
03
FE
09
0B
FE
FD
07
F8
05
01
00
0A
0C
F6
FF
FD
08
03
04
FE
FA
F5
FB
02
FF
FF
FE
FB
FD
00
0C
FA
01
FF
00
FD
00
07
07
FC
FB
00
02
FA
F9
F9
05
FB
FB
00
FE
FF
FB
F9
FC
FF
05
03
F6
00
03
00
09
04
FF
F5
05
FD
08
00
08
07
F6
05
09
FB
05
04
F5
03
FE
0C
07
F5
05
03
00
FD
05
FA
FF
05
00
F8
FC
02
FB
F8
F7
FF
05
00
08
FE
04
FC
F9
F9
F9
05
FD
FA
F7
FA
F8
FB
06
F9
F9
FC
01
FB
09
FE
FD
FC
FF
F9
01
09
02
03
00
00
0B
05
00
F6
05
02
07
02
06
05
07
00
02
FC
05
04
FA
F5
03
01
F5
FC
07
01
FE
09
FE
F8
04
09
FF
F5
08
FA
03
F8
05
02
06
01
F5
01
07
06
08
02
03
FC
05
02
02
FE
05
07
F7
02
F8
00
F8
00
FB
F9
09
03
04
F9
FA
FE
FB
FD
03
04
07
FB
0A
F9
F7
FC
F9
FD
05
05
FD
06
F9
06
F7
02
F9
03
FC
05
F9
FF
05
FB
FE
04
07
07
F9
08
07
FB
FA
04
F8
00
07
04
FE
01
FA
03
09
FD
FB
08
04
FE
09
03
02
FE
0A
05
08
06
05
09
0A
08
00
FC
0A
03
08
09
FA
04
08
FF
FB
04
FD
FE
02
06
F6
06
08
FA
03
02
02
04
08
09
05
F7
04
FB
02
FE
FD
05
06
FA
F9
03
03
FD
0A
0D
05
FF
07
F8
FA
F5
F6
08
03
00
04
06
00
FF
00
09
F7
0A
02
FC
01
F9
07
0A
FB
FF
07
03
03
08
06
01
01
FA
06
09
0A
FB
FC
07
FD
03
FF
F7
FB
01
02
09
FF
06
F6
03
FD
06
04
01
FE
0A
05
09
FE
FA
03
FD
04
FF
08
02
05
F9
06
FF
F7
09
F6
01
03
FC
03
F9
FB
05
F9
F9
05
FF
06
08
03
08
00
FF
F7
FA
00
06
F8
FE
03
01
00
F8
F7
06
07
FB
0A
F7
FB
F7
FA
09
04
FF
FC
01
08
F6
01
FA
05
FA
00
05
04
0A
03
0A
FF
F9
FA
08
02
F5
F9
06
F7
FD
FC
FE
FF
02
02
0A
05
05
FF
01
FE
07
07
01
03
02
02
FC
FB
0B
07
02
FF
01
06
FB
FB
09
FE
07
04
07
01
00
FC
FB
02
FB
F7
06
FC
FF
05
F5
04
FC
F7
05
05
09
FE
FE
FC
03
F9
07
05
0A
08
F9
04
F9
03
F9
FE
09
0A
05
FC
00
FD
FF
FE
09
FE
01
03
FE
06
F5
00
FD
F7
FF
01
FC
0B
FA
00
FE
FF
FE
FE
08
FC
09
FF
00
FC
F8
FD
FE
06
FF
F9
09
F8
07
01
FC
09
F8
F8
08
03
F9
00
0B
FB
FD
F9
05
FD
F7
05
04
09
FC
FF
FE
00
07
04
02
07
FB
FF
08
06
FC
05
FC
08
07
01
FD
06
FC
FB
F7
FA
FD
FD
09
07
FB
F6
05
05
06
FB
00
03
07
FC
FE
01
05
FF
FF
F7
F6
F7
06
F9
FF
00
FC
FA
06
F8
08
04
07
F9
03
04
02
06
FB
F9
FB
03
FD
05
F7
00
FF
FB
FF
0A
FB
08
09
FD
FD
08
F6
06
05
FB
04
FA
04
FF
F8
FD
FD
05
06
07
F8
FA
04
0D
01
FF
F6
04
FA
FD
00
07
05
09
FF
06
FF
08
FB
02
FE
FA
FA
0A
FD
F8
F9
FE
00
03
FF
06
01
03
07
07
07
FA
01
F8
F7
FB
0C
00
0B
01
F8
FD
02
00
FF
F6
FE
FB
FC
FD
F6
03
FD
FA
06
FC
01
01
04
FF
FE
FF
06
05
09
01
00
FB
FD
07
F5
FA
FF
F7
01
09
FC
FC
F6
09
FE
01
FB
01
06
F8
07
FD
01
FB
01
FC
09
F6
FE
01
FA
05
FC
0A
05
FC
08
FF
04
03
01
07
00
08
0A
0A
0B
FF
05
07
F6
FB
00
FF
02
F7
F8
FC
05
00
09
FA
02
05
FF
FF
FB
02
06
03
00
03
FF
F7
02
01
FC
FE
00
04
0B
F8
01
05
F7
06
F7
00
07
09
F8
07
01
04
FE
01
07
FB
05
05
FA
F6
F4
00
02
06
F8
02
FB
0D
FF
F8
04
02
F8
FB
03
FC
05
FC
FA
FF
FC
F7
FA
05
FD
03
FE
01
05
04
F9
FB
FC
02
F8
09
01
F7
03
F8
06
F4
F9
01
F9
FD
02
06
F8
FF
00
00
04
03
07
02
FE
04
0B
FC
FE
07
FF
FE
F8
FF
FB
07
04
01
FD
09
03
F8
F9
FC
F4
08
F8
FD
FD
01
F7
FC
09
0C
FF
FA
04
FD
06
F7
04
09
F6
06
08
06
04
01
04
FE
FF
FA
FF
08
05
F8
03
FB
FE
FF
07
01
FB
08
F6
04
0B
01
03
FC
04
05
FD
F8
FB
02
F6
FF
04
FF
FC
FA
FD
FB
0C
04
F9
07
F8
FE
FD
01
01
FB
00
05
05
07
F4
02
FA
05
FF
FB
FB
07
FF
01
03
00
F8
07
FD
02
FA
FE
FA
FC
04
FD
FF
FD
06
FB
F6
F7
FD
06
05
09
09
08
FC
07
0C
F7
F4
02
05
04
05
FD
FA
0A
04
08
0C
FF
FC
F8
03
0C
FD
04
F6
FE
06
FD
FC
FC
00
0E
F9
FA
03
01
00
05
FE
F9
FE
FC
FC
F7
FE
F7
FA
03
08
05
07
03
FD
F8
FE
01
FF
07
F7
F4
FE
F9
02
FD
00
FF
FF
01
FA
06
FD
FF
03
00
06
02
FD
F8
02
03
FF
FD
0C
FD
03
FE
05
09
F8
01
07
F9
05
F9
FF
06
00
FD
F6
F8
02
F8
FC
02
F9
05
F9
07
07
FC
0C
03
07
01
03
FA
02
F9
FC
04
F8
04
F4
FE
09
F8
08
F9
FB
07
04
04
FE
FD
FB
04
FD
09
00
FD
02
0D
02
02
0A
07
0C
00
F7
FF
F3
01
F7
F4
FA
04
04
FA
01
02
02
FD
FF
0C
F7
03
02
FB
FD
01
02
FD
05
FE
FB
F7
F9
01
0B
05
02
07
06
F7
07
09
F3
04
01
F9
FB
0C
02
00
F7
01
04
09
06
FF
08
02
FD
FB
FB
F8
F4
04
09
07
02
FC
04
08
07
FC
03
07
FC
FD
FF
02
06
F4
F4
02
FE
02
FA
FD
F8
09
02
04
FD
F7
FE
05
FE
01
07
05
F9
F3
FB
FD
04
F9
00
01
FD
01
08
F7
FD
FA
01
02
FF
07
09
00
02
06
F9
07
FB
07
03
05
F6
FD
0B
08
07
FD
FE
08
04
FF
06
FF
FF
FA
F7
F5
06
FD
FE
F9
F6
0C
00
01
FC
F8
09
07
09
FA
00
06
F8
05
08
01
05
FC
FD
03
FB
04
FE
01
F7
FD
07
08
04
00
0A
08
F9
F6
FF
01
07
09
FE
06
FE
09
05
FD
F6
00
01
FC
FC
FC
FD
07
07
07
FE
0A
FD
06
06
FC
F9
00
01
00
FC
05
F8
07
03
FF
FC
07
FA
FE
02
F9
08
04
F7
00
F8
F8
FD
FD
07
01
FA
F9
FF
09
FD
FC
07
00
FE
FF
06
00
02
F7
01
FD
FF
09
FF
FD
FC
06
F8
02
04
03
F9
05
00
F9
FC
FD
04
06
08
F4
F9
03
F9
09
07
FD
FC
07
FB
F5
03
07
FF
08
FC
04
FD
03
FF
FE
03
FE
09
FB
FC
FC
FA
06
07
FC
00
05
06
02
07
05
08
07
F5
FF
08
F9
0A
08
FD
FA
02
08
FC
FC
F7
FC
00
FF
08
FF
07
07
03
00
FA
05
FA
FF
FE
03
FD
FD
06
02
FB
FA
06
06
04
09
06
FA
00
F8
05
09
02
01
09
05
01
FD
02
FF
08
F7
FA
04
07
06
FA
06
02
FA
03
08
F7
04
05
F8
01
01
05
00
01
04
05
FA
01
01
FD
05
FC
02
04
09
FA
02
F8
FA
FA
01
05
F6
06
FF
07
FD
04
FB
00
05
FE
F9
FA
04
FF
02
03
00
F6
F7
00
FE
02
FE
05
01
FC
04
FD
F8
06
06
05
FA
FD
04
03
F7
04
01
00
06
05
00
FA
01
F7
FF
00
FF
F9
FD
FD
05
08
FB
FC
FD
F7
06
FC
09
FF
09
02
07
FF
05
FF
F9
01
F6
FA
07
FE
F9
F7
FD
F6
05
F7
08
FB
FA
08
01
F7
02
02
01
03
05
01
FB
04
09
FA
05
02
05
FC
FB
F9
02
07
08
01
FA
03
05
05
08
F8
FD
FF
01
FF
FA
05
06
01
FA
FD
00
02
03
FC
05
05
F7
FE
FB
FD
F6
FD
0A
F7
07
F6
FB
02
00
FF
07
FC
07
F8
FD
03
00
05
05
00
FB
FE
01
06
FC
07
01
05
03
07
01
0D
F8
05
01
06
07
00
09
02
F8
FD
05
06
F9
06
07
00
02
FF
FE
F8
08
02
F8
F6
FA
F7
FE
02
F8
FF
F8
F8
07
06
FB
01
F9
FF
F8
FF
03
02
06
08
05
06
F7
FC
F9
07
F5
F7
F9
01
09
05
F7
F7
09
FE
06
05
FA
04
02
02
00
FC
03
03
05
FB
FB
F8
F8
00
05
F6
07
FE
FE
FB
F7
F9
FA
F5
01
01
FB
F6
03
04
F9
F7
02
06
07
06
0A
F9
F5
F6
09
FC
04
FE
06
01
09
01
FF
04
02
0B
FF
09
FE
03
F8
08
FD
F7
F5
FD
F7
FA
09
FF
04
F7
F9
FB
FE
0A
F6
0A
FD
F7
FC
FE
03
FB
04
0C
FB
04
06
F5
FA
FD
09
05
02
00
FD
FB
FC
08
02
FD
FB
06
FA
FA
FD
F7
FF
F5
03
F6
FF
F8
00
0C
09
FF
06
01
05
07
05
F9
01
F7
FB
06
01
F8
05
F8
FB
0A
FB
FA
FA
03
F8
FF
02
FB
FC
FC
09
FA
FF
06
02
05
06
08
06
F8
08
F5
0B
FD
F7
FD
03
F7
F5
FF
04
03
05
01
09
09
07
04
FD
02
F9
FF
01
FC
05
FE
04
07
09
01
FC
FE
02
03
07
08
04
06
01
02
F7
06
FA
FA
FA
F6
06
07
04
00
F7
FB
F5
03
FB
02
09
F9
05
0B
01
05
06
04
01
FB
FB
FD
09
07
05
09
FA
05
F9
FC
FB
04
02
03
00
F9
08
FF
04
FE
FD
FF
FA
FC
06
08
04
04
F6
F9
F7
FA
06
05
FA
04
FB
FC
04
02
FE
04
0A
01
02
0B
07
F8
0C
FE
08
FD
07
08
08
F7
08
08
FF
06
FE
02
04
01
0A
F5
05
07
F5
01
05
02
FD
F8
FA
07
04
04
05
F6
FD
07
FA
09
05
06
06
FB
FC
03
FD
08
FE
05
FD
FB
FE
FD
02
F8
04
F9
04
FA
00
0C
02
07
06
FA
F9
05
03
01
FF
FF
01
08
FA
02
FD
FE
06
05
F8
02
FA
FC
F9
F7
07
FF
08
09
FF
FA
FF
F8
03
09
03
0A
FB
F5
07
F8
03
06
06
07
07
FF
F7
FA
07
04
FF
08
00
07
09
07
02
05
03
00
06
03
F7
FE
FA
FA
04
00
01
FB
02
FA
FC
04
02
02
FB
04
04
FB
FF
00
00
02
03
F7
03
FC
03
08
02
FA
FE
00
FA
F9
05
F9
0B
FE
F9
F5
FD
08
00
FE
FC
00
FC
F8
05
FC
F7
F9
09
0B
02
F8
F7
FA
08
FF
08
FC
F8
FA
FF
FA
00
FA
FC
03
06
FF
03
F9
F9
FC
FD
06
04
FF
07
FD
FA
0C
04
00
07
05
FC
F6
01
F9
01
0C
00
02
F5
05
07
FB
05
06
06
FF
FF
FA
04
F7
04
FD
00
0B
08
F8
FC
02
FD
06
06
FA
02
05
02
03
03
FE
F7
F8
09
06
FE
FD
09
09
06
07
06
F9
09
08
05
03
05
FB
F6
01
FB
09
FA
01
05
F6
FF
07
07
09
F7
00
07
03
03
FA
00
F7
FA
FB
00
FC
FC
00
FB
FC
05
07
F7
06
01
06
FB
06
FC
01
FA
04
FC
FA
F7
F8
01
F8
06
07
FD
0A
08
F5
04
06
F7
02
05
FF
FE
00
00
0A
03
F9
F9
FC
FB
FD
08
F6
FA
06
F7
00
03
01
08
FC
03
08
06
00
FB
FD
03
0C
03
01
08
FE
07
FE
07
FC
FA
06
04
FC
08
04
F7
09
FD
03
00
FF
F7
FD
09
FB
F8
04
FB
FA
F9
02
04
09
07
FA
FB
05
FD
F7
F9
07
00
F8
F7
F9
FC
08
F7
FD
07
06
07
03
F7
FA
F9
02
F9
05
FE
04
05
FA
05
FB
04
F6
FD
FA
05
F7
04
05
03
FB
00
F8
05
04
FC
FC
08
05
09
00
06
08
FB
FF
F7
09
08
08
06
05
FD
04
FB
FB
07
FB
01
F7
07
03
FC
06
00
FB
FF
FB
08
F5
FF
F9
05
F7
08
03
F7
0B
05
F7
F4
05
F5
03
FF
04
06
F4
07
04
02
06
05
FC
00
05
07
FA
09
03
F8
07
FA
FB
F7
FE
FB
06
05
04
F8
04
FC
02
0B
F9
F7
07
FE
FD
00
FF
09
F7
FA
FC
F9
F6
F9
FA
06
0A
FC
FE
0B
F8
FE
00
FA
09
06
F7
F6
F7
0C
02
F8
01
FA
FB
FD
FD
FF
FC
FC
00
FF
FE
FF
07
07
09
06
05
FF
02
07
05
FB
F9
05
06
FE
08
02
FA
FE
04
01
FB
06
F9
FB
03
05
04
F5
04
00
09
FC
FC
FB
FD
FA
0B
00
04
FA
05
FD
05
0B
F6
FB
02
07
05
07
FE
00
06
02
FA
F8
FB
03
FE
F9
F6
00
08
F9
07
F9
FE
09
00
07
08
07
F6
06
FF
02
04
FA
FB
00
FB
FB
01
06
FA
03
03
FE
05
0B
04
0A
F7
F9
07
02
03
05
04
04
02
F7
04
03
02
03
07
03
F8
07
FF
FE
FA
09
FB
01
02
FD
FE
06
FF
02
07
06
FA
F9
06
F7
05
08
08
FC
08
0A
04
02
00
FF
08
F9
F8
05
09
00
FA
00
00
04
FD
F7
F9
F7
0C
05
FE
FD
FD
FC
00
07
F7
03
02
03
FF
FE
FC
FF
01
00
F9
FA
03
09
0A
FF
00
F7
F9
FE
07
F9
03
07
F5
02
F7
08
F6
FD
FA
FE
05
09
FC
F9
FF
07
F6
FA
09
FA
09
F9
04
02
FA
F6
F7
00
F8
FD
05
06
FC
FC
F5
FD
FF
06
F6
F7
F9
FF
F8
FD
FB
05
02
FB
06
FD
04
0C
FC
F8
05
F6
F8
FD
08
0A
08
FF
F8
0B
F9
05
02
01
FE
04
F9
FD
FA
04
FA
07
FC
FF
04
01
04
02
F7
0A
06
07
FD
F6
09
05
FB
07
0C
FC
04
F7
FB
FF
FB
02
FB
F5
F7
03
08
04
FE
F9
03
09
03
FD
F6
F8
07
FD
04
FE
FF
05
09
08
05
F6
F9
FF
04
04
0B
F9
F9
F7
FC
F5
FD
05
03
FA
FF
00
09
07
04
06
09
08
FB
00
05
FF
FC
00
FC
01
FE
FC
03
FE
FD
FD
04
07
01
F9
FE
0C
F7
05
FD
FD
01
F8
FD
08
01
07
FE
0A
FF
00
07
F7
F7
FD
06
01
00
04
FA
F7
FF
02
FD
FA
FD
FD
01
07
02
FC
01
02
FB
F4
03
FF
01
FF
0C
F7
FA
03
FB
FA
FB
05
FC
FA
01
0A
0B
01
04
01
FE
00
08
FB
07
F6
FD
08
05
00
02
FC
03
00
FD
FB
FD
07
F8
01
00
06
F8
F9
03
06
02
FD
FB
F5
FD
FD
00
07
FB
F7
00
FB
FD
06
08
05
0A
F9
07
08
06
FB
F6
03
F8
FC
07
02
FA
FF
FC
07
03
03
FF
07
FB
02
01
03
FF
09
02
FC
FB
FB
0B
08
F6
02
F9
FB
FF
04
05
05
FE
07
FD
FA
05
F6
04
F8
05
FC
05
05
01
08
03
F9
06
07
03
06
FA
FC
FB
FF
F8
01
07
FB
0B
07
07
02
07
FC
08
FA
F9
02
08
FA
F9
FF
FA
FE
FF
FA
F9
FD
FA
00
01
04
F7
FC
04
FE
FE
05
FE
09
02
F8
FD
F8
FF
02
F8
07
FB
FF
0B
00
04
FD
00
FB
07
01
04
FE
FA
06
00
F6
03
02
FD
F7
06
F9
03
F9
06
01
F9
F7
09
00
F8
07
02
FF
09
07
02
FD
FD
06
FE
06
F9
09
FA
09
FB
02
FA
01
FA
05
03
FA
0B
FE
FA
07
09
05
FF
0B
02
02
05
05
01
04
F6
0A
07
08
F8
04
FF
FC
06
08
FE
F9
FD
F9
FA
05
FF
01
00
03
F8
FF
FF
FE
F9
FA
06
F8
F9
FB
03
F7
F9
0A
FF
08
03
03
FE
00
02
FA
06
08
F8
F7
00
FB
FA
05
FB
05
FB
F7
FD
02
F7
02
FC
FB
09
FE
05
FF
00
FA
01
07
06
08
01
FF
FC
F8
F6
05
FB
FC
04
06
F9
FE
00
00
02
FB
FB
FD
00
09
08
09
FB
00
02
FF
00
F8
01
01
01
F9
02
0A
02
01
F9
FB
09
02
FB
06
FB
FF
03
03
08
01
01
07
03
05
00
08
FE
F6
02
FE
F7
03
F7
FF
05
04
09
FE
05
05
FF
F8
01
08
06
FE
03
06
F7
FF
FC
01
FB
FC
F8
F9
00
FD
FE
01
09
FA
F8
04
FD
F8
F6
02
FE
03
FE
08
FA
F8
FF
02
08
FE
03
F5
08
FE
FD
01
FA
FB
05
F6
F8
06
07
FF
FB
F9
04
FC
F9
03
03
FB
FA
FB
05
F8
06
04
07
06
02
FD
06
F9
09
FD
F8
01
FA
FB
FA
FD
02
FC
F6
07
FC
FC
09
03
FF
09
06
F6
FD
09
04
0B
04
0B
FA
FC
FA
FB
06
05
FF
FF
FF
FD
01
08
FA
08
01
FB
FB
06
06
FE
FC
04
FB
01
FC
03
01
F6
F8
F9
08
00
04
02
F7
FA
04
03
FC
04
09
0C
02
00
FF
03
01
06
F8
02
05
03
F9
07
04
FD
03
FB
FF
05
FE
FB
08
F6
FA
FA
01
FA
05
05
03
01
02
FF
FE
09
02
FF
07
FE
05
FB
FA
F9
07
05
00
FB
04
F8
01
07
F9
01
F9
03
FB
02
05
F7
01
04
FD
04
01
04
02
F7
FF
06
F7
09
03
FF
F9
06
02
01
08
FC
09
02
05
03
05
FA
04
02
06
01
03
01
01
06
FD
FC
04
F7
F9
04
F6
05
FB
F6
FB
F5
06
03
02
03
F9
06
F9
FC
FD
F9
F7
F8
05
02
06
05
00
F8
F9
F8
FA
F7
05
FA
03
F8
F8
FE
F7
FF
05
FB
05
FB
05
02
FB
F8
FC
07
F7
FD
0B
09
0A
00
06
FA
0B
03
FE
08
FD
F9
F8
FC
F7
07
05
02
FA
04
01
FB
F8
FF
FA
02
06
01
00
05
08
F7
FB
FF
F9
08
F8
FD
FF
08
09
F8
02
FB
00
FD
08
01
F8
01
07
06
08
F6
00
FF
FB
06
FC
01
08
FA
06
F9
03
08
02
09
00
07
01
FA
FB
05
FB
01
03
05
02
02
FA
04
FD
FF
08
02
F8
08
F7
08
F9
0A
FE
06
00
03
06
FB
FE
05
FF
FA
08
FF
FE
F7
FC
07
03
05
0B
FF
FC
07
FE
FA
F7
F6
03
08
FC
0A
03
F6
08
04
F8
00
F9
F8
F9
01
00
FC
05
07
FC
00
00
FB
01
07
08
FF
06
00
FB
00
05
00
09
F7
00
FB
03
F6
03
F6
09
FA
FE
FD
06
01
FB
01
FC
04
F9
02
FF
09
08
F9
03
03
F8
FF
00
FD
FC
08
06
07
03
06
05
FE
FA
FC
FA
06
05
03
03
08
00
00
01
0A
F9
FA
03
01
FF
06
F8
04
FF
01
05
F8
FB
00
08
FC
07
05
FE
FE
F7
F9
FD
FA
03
02
04
FF
06
09
06
04
F7
FE
FC
F9
05
03
F9
FD
FE
04
FE
06
03
07
F7
FF
03
FB
0A
08
F8
03
04
09
FC
FF
FD
02
04
FB
00
FF
F6
FE
05
07
FD
FB
FE
F9
FB
FD
03
09
F7
FD
FA
F8
06
FB
F8
05
FE
FB
04
F9
FA
F7
00
F8
FD
F9
05
F9
FE
05
02
01
FA
05
04
01
FF
F7
00
00
FF
F7
05
00
01
FF
FD
09
03
FF
FA
FF
05
02
09
04
06
0A
F8
0B
F5
F9
04
FB
06
FB
01
FD
FE
F9
FC
08
F9
F6
02
FD
04
06
05
01
02
09
FC
01
04
FA
04
F6
FA
FD
FB
FD
03
FA
F6
FD
01
03
FF
09
FE
FD
FC
03
F6
06
05
F7
02
05
0B
06
06
03
05
FC
FF
06
01
F6
FC
09
FB
F8
02
01
0B
FE
00
FF
FD
F8
F9
F7
FA
04
02
FC
08
07
09
FD
FB
06
02
FF
06
F6
05
05
FC
04
07
02
FC
FA
07
02
F7
07
FB
FD
FD
03
F6
F9
01
05
02
FB
07
FA
01
05
FE
01
07
04
08
FB
03
F9
07
0A
FB
F8
FD
FF
FA
04
FD
03
FE
09
06
F9
F6
05
00
00
06
02
08
01
F7
FB
FA
06
F8
02
F8
FD
FD
03
09
08
F7
FC
05
04
02
F5
FE
F7
FA
02
F8
FB
F9
FE
07
05
03
07
F8
FF
03
01
07
04
05
01
F8
FE
0B
FC
0A
00
06
F7
03
06
F7
F6
08
07
FD
01
F8
FF
FE
04
00
04
05
05
0B
F8
FA
03
06
04
00
FE
07
FB
01
06
FE
FE
01
08
06
09
0A
08
02
07
08
FD
FF
F7
FA
FE
09
FB
01
09
04
F9
00
FB
FC
09
03
FD
FE
FB
F7
0B
01
08
F8
05
02
08
F5
F7
FF
01
F9
00
F8
08
04
07
02
FF
F6
FD
FE
F7
05
05
F9
FC
FF
FB
05
FB
07
09
FA
02
FA
FC
FE
07
05
FD
09
01
01
FF
0A
05
FB
06
02
06
FB
F4
FE
F8
FC
03
0A
01
00
07
F7
F8
FD
05
FD
02
FD
04
02
00
06
FA
08
01
04
F8
FE
FA
03
F6
FE
09
07
F6
FD
07
01
F5
01
04
06
04
FA
02
F9
FB
F5
F8
F9
07
FE
F6
0A
FC
08
F8
FB
FC
03
FE
FE
FC
0A
FB
FE
07
01
FD
FB
05
FF
08
07
08
00
FB
04
FC
02
FB
01
01
03
04
FC
FB
08
01
FF
FD
00
0A
F7
08
F8
F5
06
06
FE
F9
09
FF
FB
02
03
06
04
FF
01
09
F7
F6
06
06
FE
FB
F5
FF
FB
00
03
FD
05
03
FD
07
06
04
FD
07
02
05
FF
08
06
FE
F6
FC
08
08
0D
FE
FD
F8
F9
03
F9
FC
FC
F6
FD
05
FB
FB
FE
00
F7
FF
03
FC
FE
F9
02
F7
FF
03
03
06
FD
FC
03
FC
F9
FA
FA
04
05
01
FD
05
FF
02
07
06
FB
FB
F7
09
FD
08
FF
04
01
FA
07
04
02
FC
00
02
02
05
F9
07
FF
01
09
0B
FE
F9
01
05
07
F9
FB
FF
02
F7
F8
03
FC
09
04
F9
F8
04
09
FD
04
0C
00
08
F9
F9
03
04
F5
05
F9
00
00
07
05
FB
FF
07
09
04
04
08
FB
FC
06
09
07
05
F7
FD
FF
08
08
0B
FB
FF
02
F9
09
FB
08
FA
07
FB
03
FF
FE
FE
01
FF
08
FD
F9
04
06
FC
FF
F7
FF
04
03
F9
FA
03
09
FD
F9
F4
07
F9
09
F7
FE
06
07
FA
F4
02
02
FD
02
F7
00
01
02
FA
FF
FA
03
04
FC
F8
00
01
FD
03
08
02
FD
FC
FF
FF
05
F7
04
05
04
00
FA
F8
01
0B
F5
08
0B
FD
FC
F7
F9
06
FD
08
F4
F4
04
F8
01
F7
FA
FC
06
FA
F7
02
FD
06
F9
F7
00
04
F8
F8
FF
02
01
FC
01
06
04
02
02
FE
FE
F7
F9
00
FD
F9
FB
06
FA
05
0D
07
FD
F5
F8
F8
FD
07
FE
F5
06
03
0A
F7
FC
FD
02
05
01
FD
FA
FF
09
01
01
05
09
08
0B
01
FA
FE
FF
02
06
FA
F9
F7
F4
03
FA
FB
FE
03
06
06
02
F7
04
04
08
F8
03
04
03
FB
F8
FC
05
03
F9
05
00
FB
F7
01
F7
08
07
F9
F6
0D
07
01
00
F9
01
08
F4
FD
09
FC
FA
F8
F9
FB
F9
FC
F5
03
00
FD
FF
FD
FF
0A
09
0A
FB
03
06
06
FE
00
FA
F7
08
00
00
08
05
FC
09
F7
0A
07
FD
FA
06
04
00
07
02
F6
0A
FE
00
08
08
00
06
F9
02
FA
01
02
06
00
FB
05
00
08
F4
FA
01
FC
0A
07
02
02
05
06
FE
02
F9
FE
FA
07
08
FF
FE
FD
F7
FE
03
F4
F3
FC
F4
FD
FC
05
03
01
09
F9
FA
02
01
FD
FB
FC
F9
08
06
04
01
04
07
02
FB
F8
F9
FE
FC
FC
FE
03
01
FA
FD
FC
F9
00
F9
FD
F8
FD
05
08
FA
00
FE
06
FD
FB
04
01
F6
FA
07
04
F8
0A
06
FA
F7
06
05
02
F7
FF
00
07
F6
06
00
00
F8
F9
05
F6
FC
0B
0B
FE
FD
F7
F9
F8
F9
F9
00
F8
04
09
FE
FC
FD
07
FA
FD
07
04
FE
FA
FC
F9
0B
02
07
02
01
FC
FB
05
00
F7
03
FC
01
0A
06
05
07
03
FF
F8
FF
FC
00
01
FA
01
05
03
02
F7
F4
00
02
03
FD
FD
F8
FB
F9
F5
09
08
08
FE
F9
07
00
FF
06
F6
07
00
06
07
02
03
FD
FC
FE
04
09
04
FE
F9
00
08
02
F9
FA
04
0B
00
03
FA
04
07
FF
FD
03
F6
F9
07
09
06
FF
07
04
FF
FD
FA
FF
02
07
F9
FB
FD
FA
FC
02
02
00
FF
01
07
F9
FB
FB
FE
FC
07
F6
FC
07
FD
07
FE
FE
09
03
F6
F9
FD
FF
FC
02
04
FD
FC
01
FF
02
04
FF
04
03
FD
FF
04
06
FA
07
FA
00
09
FA
F8
F7
05
F9
FF
F9
02
FA
FE
06
FA
FD
05
FB
04
04
09
0C
F9
07
00
03
06
02
09
F9
09
02
F9
FB
00
FA
00
FE
08
F8
FA
04
06
FD
03
FB
06
00
07
FB
07
08
0A
04
01
04
02
07
FE
FC
04
00
08
F8
04
FC
F7
F9
F8
05
07
05
F9
00
FA
FA
F8
03
FF
F8
FB
06
F8
04
FE
F8
F5
07
F8
02
04
FC
00
06
01
03
03
00
F6
FE
02
00
03
02
FD
03
F8
FA
01
0B
FA
09
F9
05
FC
01
08
FF
F6
0A
05
FB
FD
08
FF
04
06
FB
05
03
01
FA
F8
08
01
04
FD
FA
FE
FF
04
00
FB
FB
01
06
06
01
02
04
FD
06
08
09
FF
06
FA
FE
FE
03
FA
07
FC
F9
07
FA
FE
F6
09
F8
FB
FE
FE
FD
FB
FC
03
FB
F8
05
0A
03
01
FC
08
00
F9
FB
07
01
0B
F9
FF
08
FC
FA
FD
F8
FB
FF
FA
06
FC
FB
06
FA
05
F7
FF
01
FF
02
06
F7
07
F7
03
F9
03
FC
05
F7
FD
FB
F9
00
FE
05
FE
06
FC
FB
03
05
F6
F9
06
08
00
08
FB
FF
FC
FE
03
05
FB
09
05
07
03
03
FA
FC
07
06
FE
FB
09
07
F9
FF
06
F7
F8
03
FD
FE
FE
03
09
08
FA
FB
07
F8
F8
05
05
01
FE
FA
F5
F7
FC
02
FE
FA
09
01
FA
FE
01
F9
FB
04
FB
08
04
FC
05
00
FC
02
0C
FF
FE
02
0C
F9
08
FE
FF
FB
03
09
FB
07
0A
05
FC
FB
07
04
F9
06
0C
FF
F7
07
FE
0A
04
FD
05
05
02
FC
09
05
05
02
06
07
F9
FD
FB
FB
F8
FA
FC
04
FB
FB
05
F9
F8
07
0C
FE
02
00
03
FF
FB
09
FE
04
00
00
06
01
FE
F9
F5
0D
0B
01
F8
05
FB
01
03
05
07
08
09
09
F7
00
05
F4
F7
05
F8
0D
FB
F6
06
F6
F5
F4
05
FD
FC
08
FC
FF
01
08
04
FF
01
07
F7
F9
02
F5
FC
05
FF
FE
F9
FD
01
04
02
06
03
01
0A
09
FF
FD
06
03
08
FF
00
07
FD
0B
FE
04
0A
FC
FE
05
02
FB
05
FE
F9
00
02
FA
F7
FA
06
FC
02
FD
F7
FF
01
08
01
FB
FE
00
06
F9
FF
FD
FD
04
05
09
05
00
06
02
F7
FB
02
07
06
FD
F8
F8
F9
FE
FD
00
02
FB
F5
03
05
FE
FE
F8
F8
06
0C
04
FA
02
05
09
05
F9
07
09
06
0B
09
09
F5
01
00
07
00
0A
F7
FD
F9
05
F8
FF
FC
03
04
0C
03
02
00
FA
07
F8
01
09
02
FC
01
07
FD
03
04
09
08
FC
02
03
F7
06
FB
FD
FE
FF
FE
FB
07
0A
FB
05
F8
03
FB
0A
08
07
09
FD
04
F4
FC
07
FD
F9
FD
06
05
04
05
F8
FE
01
FA
F9
09
02
07
FE
FE
07
08
FB
F9
F7
07
00
0A
FD
05
07
01
03
07
02
FD
05
08
03
06
0B
05
06
04
01
01
03
F8
02
F6
FC
F6
06
00
F4
FD
FD
04
07
FC
F8
08
FC
03
FD
0B
00
F9
FE
FF
09
06
01
FA
02
FF
0A
05
FC
FE
03
FB
03
03
FE
06
FE
F9
FE
FC
03
FA
07
FD
01
FD
03
F7
F8
FA
FF
FA
F9
03
F6
00
F9
FB
00
F9
F6
05
02
04
FE
FD
06
07
01
06
0A
05
FC
F9
03
01
F7
FB
03
F4
06
FF
08
FC
07
FE
FF
02
04
08
05
F4
FC
F9
01
07
03
FE
00
09
FE
FC
FE
FB
FF
06
0A
F8
FA
01
FE
FE
06
FE
00
04
00
03
06
FF
FA
FD
F9
07
03
FE
06
FB
FC
02
FF
07
05
06
09
05
0D
09
07
06
07
FE
00
00
F7
00
FA
F7
FD
04
F4
02
FB
08
04
06
04
FB
F7
01
F6
FE
06
05
09
06
FE
FA
FF
F7
FD
01
04
F9
FA
08
FA
FD
FB
FB
FE
01
F9
01
02
F9
FB
FE
F5
08
FB
09
FF
03
FB
00
FA
00
FF
FA
FC
FA
F7
01
F5
FB
03
F4
FE
03
04
F6
04
08
FE
01
FC
02
07
03
FF
FD
FA
F9
07
03
02
0A
F7
01
09
08
FA
0B
05
09
05
00
FE
00
06
FD
08
F9
FD
F9
09
04
01
FB
03
F7
08
08
0A
03
FB
09
09
01
F9
F5
FF
00
0C
06
03
FF
08
01
01
05
FB
FB
0B
08
05
F7
04
FA
05
03
FF
02
F6
08
03
FB
F7
08
00
04
F9
02
FD
04
F8
F5
FD
FA
08
F7
FB
FF
04
03
09
F9
08
F8
FF
FE
08
00
04
03
03
FC
F9
01
FE
05
03
07
F5
05
00
FA
FA
FF
07
06
FD
0A
F6
F6
FD
F8
07
01
FA
09
02
06
02
01
FD
03
F6
F9
01
04
F7
FA
06
F8
F7
FD
F7
F9
09
08
04
05
F9
06
FB
F9
FF
F5
FB
FC
00
06
05
FC
FC
05
09
0A
06
04
00
FF
F6
04
08
FA
F9
06
07
08
FB
FA
F7
FA
FE
03
03
F9
00
FF
0B
02
09
F8
FE
07
FC
F8
FA
F8
F5
FA
07
05
FE
06
F7
08
00
F7
04
05
02
03
FE
09
01
F9
FD
F8
04
FE
FC
F7
F9
FB
F7
FF
FC
F8
05
FD
FF
FA
F9
01
00
05
00
FB
02
FD
02
01
02
07
FE
0B
02
FA
FE
FC
05
F8
FD
00
FC
FD
09
F9
03
01
08
F6
FD
05
06
05
07
08
01
03
07
FE
05
03
02
09
FA
FE
04
08
F8
FA
F8
F8
09
03
FF
0A
01
00
FB
FF
FF
FD
06
FF
05
07
03
03
01
07
05
FB
FE
05
02
FF
F7
01
06
06
09
FD
03
06
02
F7
02
FC
07
FB
F7
08
06
08
03
FD
F6
04
FE
FF
04
05
06
F7
FB
FC
F7
02
F8
FF
FA
09
00
F9
FB
03
F7
FF
FB
09
09
F9
08
09
FE
F8
03
FB
FF
06
06
FE
F9
09
03
09
F9
F7
00
09
09
07
FA
FD
06
FF
FA
08
03
F8
04
FF
FB
F8
08
04
02
FD
FD
FD
FE
09
02
01
09
05
01
08
F9
FF
FD
FF
02
FF
FB
FC
05
F9
FA
00
FC
FF
F8
04
FE
FB
01
F9
FB
05
05
FA
FF
00
FE
09
00
FC
09
08
06
FE
0B
F7
FA
03
0A
FE
00
05
FB
06
F9
08
00
03
02
FC
F7
08
07
07
FA
F8
02
07
FF
06
FB
08
04
FF
F7
F7
01
F6
08
FE
01
F7
FA
07
05
00
FF
FF
F8
09
05
FB
FF
F9
08
08
F7
02
07
FC
FE
F8
FF
08
03
07
FF
07
FF
F7
00
09
02
05
FB
02
FB
FD
04
04
FB
06
FE
05
F9
02
FA
04
F9
07
FC
F8
06
05
F9
06
08
F8
00
F8
F9
FA
01
04
F9
03
09
FB
F7
FD
F8
07
08
FB
FA
05
F8
01
05
04
04
FF
08
08
06
F9
FE
02
F9
F6
FF
02
F9
F9
FF
04
F7
FD
F9
06
FC
0A
F8
09
FE
F8
F5
01
03
08
07
FA
01
00
FB
FB
06
F7
F6
08
FB
FE
F9
08
F7
04
FB
F7
00
00
FF
04
07
09
F9
05
04
FA
FA
FD
01
FE
06
F7
00
07
03
FC
09
04
01
01
08
00
0A
FF
07
07
FB
01
F8
F9
04
07
03
FA
FE
08
06
FD
FA
01
07
07
FB
03
06
07
FB
00
FD
FA
08
01
F6
08
FF
00
FF
0B
0B
03
07
FF
00
05
FB
FC
FC
FB
06
F9
05
09
FF
FB
FB
01
09
F7
08
02
04
FA
FA
03
06
06
05
09
FE
00
F8
02
F8
F8
03
04
02
06
FE
FE
00
FA
FA
F9
08
04
FD
F7
F6
FE
FE
FE
05
07
F7
FF
FC
FF
05
FB
FE
01
02
04
01
03
FA
F8
04
FC
09
FE
06
FB
05
01
F8
FA
0A
05
01
04
F8
03
FB
FE
FB
02
00
FA
03
02
F7
07
00
FF
06
09
02
06
09
05
FA
FF
01
0A
FC
03
00
04
FA
FB
F7
01
08
03
09
07
FC
F8
F7
07
05
04
06
FD
0B
00
F9
03
FB
F7
F5
07
FB
FF
FF
FA
0A
F7
F7
FE
05
02
02
FA
F8
08
00
FB
FD
FA
03
02
FB
07
00
F8
01
F7
05
F9
FF
01
00
FE
03
04
FC
07
FC
FE
02
06
00
F9
04
03
08
F7
06
06
F8
00
00
08
FF
F9
F7
FB
09
F9
FA
03
F8
08
05
03
05
00
06
FA
00
FB
04
05
09
F7
07
FB
FF
FA
FC
FC
FA
F9
00
F7
FC
04
08
03
FE
FD
FD
06
03
FA
00
F7
FB
01
06
03
07
01
04
F8
F7
06
00
FB
F7
07
07
05
FB
09
F6
FE
08
FE
01
07
04
FF
F9
FB
FA
01
FC
F9
F8
05
06
08
F8
03
F9
00
00
F9
FA
FB
00
FD
F5
08
0B
00
FE
00
02
FC
09
FB
F9
01
03
FB
F7
04
04
FF
FE
FE
09
07
07
01
FD
00
03
F7
FE
FE
05
06
FD
03
09
FA
07
FA
FC
FE
F8
03
08
FE
05
F7
FF
09
FD
06
07
04
FB
FE
00
05
FB
04
FD
01
FB
F9
07
FC
00
FB
F9
06
04
09
FF
FD
05
03
FD
09
03
00
FD
F8
01
00
00
FC
01
0B
01
07
F7
F9
FD
02
05
FC
08
04
F7
09
FF
FD
FD
F9
01
03
F8
00
07
00
FF
F7
06
05
01
01
FC
09
FF
FF
FB
FE
FA
FE
07
FD
08
FF
FB
01
F6
07
04
FB
02
F8
0A
01
03
F8
F6
03
04
01
F9
FD
FB
04
FC
FA
FA
03
06
FF
FA
FD
06
FC
00
FA
04
04
05
F6
00
00
FD
08
FF
FF
02
03
07
FB
FF
FE
FD
04
02
FA
04
05
FA
FF
FC
03
FD
FA
FB
FF
FD
FE
01
0B
FC
FC
07
0C
04
01
09
03
03
F7
FC
00
FE
F8
00
F6
06
01
05
FD
01
03
FB
F7
F6
03
FD
FB
06
00
FE
09
FD
FE
F9
FD
F6
F8
04
FC
07
FC
0B
03
FD
09
FC
08
06
F8
06
02
F8
F9
08
04
F7
08
F7
FF
00
09
07
F6
FD
FA
07
FB
00
03
0A
FF
05
FF
06
F8
03
FF
05
FD
04
F7
FE
00
FB
03
06
F6
01
FC
F9
08
00
FF
01
F9
01
00
F6
F7
01
F8
FD
09
04
F6
FB
00
F7
08
FC
FA
FA
FC
02
04
F7
FA
FF
06
09
F7
03
00
FA
00
04
01
FC
06
02
05
F9
FA
00
FE
05
F9
FB
09
04
0B
FC
F9
FA
F7
FB
02
08
FB
09
FD
07
01
05
07
FB
F9
04
06
FB
05
FB
F9
F8
06
FB
FA
FB
00
02
FE
F7
FD
F7
02
FD
00
02
00
F8
F9
03
05
FA
07
01
02
05
02
FF
00
F7
09
03
01
01
FB
FE
04
FC
FC
F9
05
01
F9
FF
FC
03
FA
0B
FC
01
FF
04
01
F7
05
01
06
05
04
07
F7
00
08
F8
02
07
01
FF
04
F7
F7
00
FE
FC
03
FF
06
04
06
F7
FC
06
F7
03
09
03
FB
00
03
F6
0A
09
06
F8
05
05
FF
07
FE
05
F7
02
FD
FB
06
FE
04
00
01
FE
F8
FF
08
01
FF
03
01
FF
01
F9
07
F7
FB
F7
FE
04
04
FF
F8
08
F9
07
FC
F8
08
05
01
03
F8
FD
03
01
05
05
03
02
03
F9
F7
08
02
F7
09
06
FC
01
F9
FD
F9
04
05
FD
05
06
FF
02
08
02
FA
09
07
F8
02
F8
01
FE
F9
04
01
FB
F9
FE
F8
06
05
03
03
00
F8
FF
06
F8
03
F8
06
FE
F7
F9
03
03
FD
02
FA
08
FF
07
F9
FF
02
06
FD
FC
FF
03
F7
FC
09
F7
FF
FD
07
FA
08
FE
0A
05
F9
03
F8
FC
FF
F9
F7
02
04
04
FD
FF
FC
FD
FA
08
0D
09
00
07
F8
F6
08
03
08
F8
09
FE
01
FA
F8
F7
03
FD
FF
FF
F9
03
06
FA
FF
00
FC
F6
F8
FA
08
F8
FB
06
07
02
05
08
03
05
02
FD
FB
04
05
06
F6
F9
03
FC
06
06
FB
FB
FF
F9
07
FC
00
08
08
04
FD
05
00
06
04
FF
09
03
01
FA
FB
FB
04
05
FE
04
04
01
05
03
00
FD
F9
04
FC
06
06
F9
FB
FD
06
FF
09
F6
FD
FD
02
07
FE
08
FE
01
F9
FB
0C
FC
05
05
0A
05
00
FF
04
F8
02
FD
05
FC
09
09
FA
F8
06
02
00
06
0A
00
04
F7
02
05
03
FA
02
05
00
09
F8
03
07
FD
07
03
FB
07
01
F9
FA
FA
06
04
03
06
08
06
F7
02
07
0B
F9
07
F8
02
04
09
04
01
04
FC
09
F8
FD
F8
F6
FA
FB
00
09
09
FB
07
07
FB
0A
00
07
09
FA
00
02
05
FE
07
F9
0B
FA
FE
FC
F8
F8
01
07
04
F6
08
FD
01
09
FF
06
FA
FD
00
07
FA
FE
F9
04
00
04
FB
08
F8
08
FC
FD
01
07
F8
FE
01
01
F7
F9
00
04
FC
05
F7
07
03
F7
05
08
FD
FE
FF
F9
09
FA
09
FB
05
01
FD
02
01
04
F9
FE
FE
08
09
FF
FD
07
09
02
00
09
03
FF
FC
0A
FD
FB
F8
FB
07
00
FA
FB
FC
FC
05
FF
F8
FB
06
08
FA
07
F9
02
06
05
04
04
FF
FD
09
04
03
05
09
06
08
FB
07
F7
FB
FC
FB
02
FB
03
06
03
05
02
FF
06
FA
01
01
F9
01
FC
08
04
FB
02
F9
F7
F7
F8
02
FD
01
F7
09
05
FE
01
FB
F9
06
F7
F9
FE
08
FE
05
FF
05
09
09
04
07
FF
00
FA
08
0B
04
FD
FC
07
FE
FD
07
09
03
09
09
04
F9
03
F6
F7
FE
FB
07
00
F7
F7
05
04
07
F7
FA
02
FD
05
F8
F7
02
05
F9
01
F7
FC
FE
01
FA
02
F9
04
FA
00
08
FA
08
03
F8
F9
00
01
FE
00
FB
04
FB
FA
02
06
FC
FA
09
FA
F7
08
09
F6
00
F9
FA
FD
FC
03
F7
FF
05
FE
06
FC
F8
01
07
07
FD
08
FA
F9
08
F9
FA
FB
F9
F9
06
FE
FC
01
FA
02
F8
F8
02
06
07
F8
04
F9
00
00
07
00
FF
08
F8
01
01
FD
FE
FB
F6
03
03
00
00
06
FD
01
05
FC
FE
FA
F8
06
04
06
FB
06
F6
05
FF
01
F8
05
03
FE
06
01
03
04
01
03
07
F7
03
00
02
02
09
07
F9
09
08
F8
0B
07
04
FF
FD
06
07
00
FA
FD
FF
F9
01
FD
F9
FC
F8
F8
0A
FC
FD
FA
F9
05
01
F8
FF
07
09
FC
07
07
FA
04
F8
FC
07
02
F9
FF
0B
02
01
08
F9
FF
FB
FD
09
09
F6
06
00
FF
03
F9
FD
06
FE
01
FA
08
08
01
F7
00
FF
F8
FB
F9
04
06
FA
FB
FF
FC
04
00
00
FE
04
06
FE
05
F7
FF
00
FF
F9
FE
FB
00
FC
03
FE
08
09
FA
FD
FB
01
00
04
05
F9
09
F6
0B
F8
04
04
06
FA
07
F6
01
04
FA
F8
FF
F9
0A
02
FF
02
FA
FD
08
07
FB
05
FB
F8
03
FB
FF
04
03
09
FE
F9
F8
00
08
FA
FB
FD
FE
FA
02
F8
F8
FE
05
02
FC
FA
00
06
04
FA
05
01
06
00
0B
FD
02
FB
FA
05
F7
FC
FC
09
00
F7
F9
F7
F7
FA
08
FE
05
03
04
01
01
06
FD
06
FF
FB
F8
F7
FC
04
03
F6
06
04
F9
07
05
05
FE
FB
FA
06
FD
FF
06
FD
FF
F9
FE
F9
FA
07
F7
FD
00
05
FA
FF
08
F6
00
06
06
F8
F7
07
06
FD
03
02
FC
F9
06
07
FB
FE
FE
FA
06
00
03
05
FD
07
07
06
01
01
0A
03
F6
06
F7
FC
F9
FE
FB
F8
09
F9
09
FC
09
FE
00
FB
FE
FD
F7
03
05
04
08
0B
FB
FF
FA
FA
00
05
09
00
00
FF
05
05
FB
FD
F8
FA
01
F6
FD
F8
FB
FE
08
FA
F8
F7
F9
FD
FA
FF
06
07
01
08
F7
FC
01
07
01
03
09
08
FC
05
F7
FF
01
FE
05
04
08
04
0A
00
06
FE
00
FB
06
FC
06
F7
02
07
04
01
04
01
01
02
04
F8
05
04
02
FB
F5
F8
05
FC
01
08
01
FC
08
FA
07
FD
01
03
F6
F8
07
FD
04
07
FA
FA
05
F7
03
FB
0B
03
05
05
F9
09
FF
FB
F6
FA
09
F8
03
FF
FB
FE
FD
06
FB
03
F9
07
08
FC
03
08
FE
FF
FB
05
FC
06
03
04
FE
02
07
02
09
FD
FA
02
06
01
F6
04
FF
06
08
05
07
F7
05
FC
03
FA
02
09
08
FB
FC
FD
FA
07
07
04
F7
06
FC
01
F8
F7
05
FF
06
FE
05
FC
03
02
06
00
07
00
0B
F7
FB
F8
01
05
01
06
FE
03
09
0A
01
FB
03
00
0C
04
03
F8
00
FB
06
FD
09
04
08
01
00
F8
00
F9
03
09
F7
05
01
F6
FF
07
01
03
FC
07
08
07
FA
09
08
09
FD
FB
00
03
FC
FB
01
03
00
02
05
00
03
04
F8
06
00
04
06
01
FF
08
F5
05
03
09
06
03
08
F8
FF
FC
FF
03
02
01
01
FB
01
FF
FA
07
09
F8
08
01
F9
FA
FC
08
FD
08
03
03
FE
05
02
FB
05
09
FB
07
F7
06
FB
02
01
02
01
FB
07
F9
07
F7
FA
04
00
00
01
F6
03
FA
09
09
0B
F8
F7
08
F9
03
08
FB
00
01
FD
05
FA
09
FC
03
FF
03
0B
05
04
05
07
03
02
07
FD
00
F9
00
03
04
00
F6
03
FE
02
F9
07
FF
05
02
07
08
F8
FF
FF
01
00
06
09
04
05
FF
04
F9
FC
FF
09
04
05
01
09
FA
08
03
01
06
01
FE
07
01
FB
FA
F6
FB
01
03
07
FC
FB
FF
03
F7
FE
FB
FE
07
F9
F8
FA
FF
08
F9
07
F9
FB
F9
07
02
F7
FD
FF
FA
00
FD
09
F7
FD
F6
01
FD
F7
FF
FA
03
FA
02
FE
03
00
00
08
00
00
08
FB
F8
0A
FB
00
FB
FB
FC
FF
02
FC
F9
08
F9
07
FE
FA
03
02
01
0D
01
00
06
FF
09
03
FA
05
FE
00
F9
FE
02
03
05
06
00
09
07
07
FB
02
09
06
F7
FF
F5
06
06
05
FF
0A
FD
01
F6
08
FA
02
0C
F7
07
07
02
FF
04
FF
05
01
02
0A
05
05
F7
F7
07
F7
FE
0A
03
02
09
06
04
F6
FB
02
F9
03
09
02
F6
07
03
00
02
FB
05
02
FC
F7
FB
00
01
FD
FE
01
00
05
FD
00
01
F7
FF
FE
05
FA
FE
FE
00
FA
FA
06
00
08
F9
04
FF
06
FA
0A
F6
02
03
02
03
FB
08
00
FF
07
F5
FC
FA
F8
F6
07
F8
09
FE
FF
FF
0A
FA
FF
F8
F9
F9
08
FB
08
FB
F8
00
05
F9
F7
FF
FD
0C
08
FE
03
08
FA
FC
05
06
FA
08
05
0A
08
FE
F7
F9
09
F9
F9
FE
01
01
FF
08
FE
06
F8
FB
09
0B
FF
08
FB
F7
07
FC
08
06
FB
04
F8
F7
FB
F7
FF
04
FA
F9
02
F7
FE
FF
07
FA
09
01
00
04
08
F8
F6
F7
FA
00
FA
07
FB
FF
FD
08
FD
06
FF
04
04
04
04
FD
03
FC
05
04
04
FB
FB
FD
09
03
FE
02
07
FD
FD
04
03
01
FE
05
01
FF
06
09
FE
F7
F7
FE
01
FB
FB
08
F9
FA
06
FB
FF
02
02
0A
09
04
07
08
FB
FE
FF
0A
08
0B
08
FB
FC
FF
F7
00
03
05
08
FD
F8
08
05
FD
00
FB
04
04
F8
F8
FC
FE
F9
01
F8
F8
05
FA
06
02
08
FA
00
01
FD
05
F8
04
06
F9
FA
FF
06
F9
07
FF
08
00
FD
04
FD
04
FF
FE
FA
FF
F6
04
05
F8
FA
07
05
FC
06
FC
07
FD
07
FB
F7
FC
FB
01
FF
F8
09
F8
FC
06
04
FA
F9
FF
FA
F7
03
00
0C
FD
00
09
09
F8
F8
FD
FA
08
FF
FB
F6
03
F5
FE
FC
F8
0A
FF
04
06
05
03
F5
F7
02
F6
03
F8
FD
09
01
05
FF
09
FE
F9
FA
FB
F8
FF
F8
F6
09
05
F5
02
06
FF
FA
08
FA
FB
05
FD
FA
FA
01
FB
FB
F5
FE
06
F9
06
F5
FF
FF
04
04
F8
FB
FF
F8
FE
02
05
F7
FE
FC
F8
F7
01
FA
F8
02
09
07
04
05
07
F7
F5
FC
FB
09
01
FE
04
05
FB
F5
06
FC
05
FD
F7
01
F9
00
02
F9
FA
FD
F9
07
07
00
00
FA
02
03
06
FD
04
07
0A
01
F5
F9
09
09
01
F7
F6
02
F9
00
06
FB
08
FD
01
03
01
06
FB
FE
FB
FC
03
04
02
08
03
FA
F7
FD
05
F8
F9
05
FC
FC
FF
FF
FC
FE
FF
08
FB
09
FE
00
05
F8
03
01
FD
F9
FA
03
FA
FE
02
02
FB
F8
00
FB
FE
FD
00
F8
FA
00
05
FB
FC
04
04
FF
00
FF
06
FD
04
FF
01
00
FF
05
06
02
FB
F6
FC
FA
F4
03
04
FA
09
00
FD
FF
F9
01
02
FD
FB
02
03
01
F8
09
FE
00
02
FE
02
04
F9
07
08
FE
08
08
06
FA
F6
00
04
FC
01
0C
F6
FC
0B
03
0A
FC
07
05
FE
09
03
02
FE
01
03
06
07
09
02
00
FC
FF
00
01
FD
01
03
08
FF
FD
F9
FF
02
02
FC
FD
00
0B
05
00
03
03
00
04
FD
FA
01
FD
00
04
0C
01
01
FC
00
F8
05
F9
04
07
05
02
06
09
00
01
0C
FB
00
FC
02
FC
05
08
FD
07
03
F7
04
F8
F9
07
F8
FB
01
FC
07
F7
FF
FB
FA
FA
FB
01
02
02
0A
FC
02
06
06
02
FA
04
F8
08
FD
00
F7
FC
FA
F9
04
02
FF
FD
F9
FD
02
09
F7
08
F8
FE
02
07
01
04
FD
F7
09
07
00
03
00
01
03
05
FE
F5
FC
00
F7
05
09
FE
03
09
F9
01
FB
F7
FB
01
02
05
07
05
F8
F8
04
F7
FB
04
09
0A
FF
07
FC
06
06
F8
FC
F8
FF
FE
FC
06
0B
05
F7
F9
FB
03
00
FE
FA
04
F9
08
FB
FA
FC
F5
03
00
FE
F7
F9
06
F8
01
00
FA
07
FA
05
F7
03
05
F5
FF
FF
01
F8
02
F6
FD
04
F8
08
04
FB
F9
03
06
FD
06
FB
F8
FA
09
09
04
FA
07
FE
08
04
FE
02
02
F8
03
09
F8
08
04
F6
09
01
0C
06
01
08
0B
08
FE
FE
07
01
07
FD
F8
07
06
00
FF
FA
08
F8
FC
01
02
FD
F9
F8
01
FA
F8
07
F8
FE
FC
F8
FA
08
07
F7
00
FC
07
0B
09
FC
FD
07
03
04
FF
08
00
FD
02
FD
06
05
08
01
04
09
08
F9
FE
F8
00
05
01
05
FE
F7
FC
F8
FC
02
05
F9
04
02
F7
F9
00
06
F9
01
FC
FE
01
FF
FF
01
08
06
FB
00
07
FC
F8
FE
07
FB
06
05
08
F8
06
FE
FD
05
03
F9
07
04
00
FF
FC
08
F8
F7
F7
03
0A
08
08
07
08
FA
FC
F6
07
FB
F7
FA
07
FE
FB
03
FC
FB
FF
F8
07
06
01
F9
FF
07
FB
09
FF
FB
FA
FB
01
03
02
FB
FF
F9
F8
FE
00
FA
FE
00
07
05
FA
08
00
F8
07
FF
00
09
F7
FD
FB
FC
09
F8
03
FA
0A
FC
F7
07
00
F9
F7
08
00
08
01
FC
00
01
09
FB
FD
08
0C
05
06
FE
FA
01
08
FA
FC
FC
04
02
05
FD
05
F7
08
09
FB
08
F9
F5
04
04
FB
FC
03
05
FE
FC
FC
F7
01
00
FD
03
02
F8
03
FA
FF
07
F7
F7
F8
FB
09
FC
00
09
02
07
03
06
FF
FE
FB
FC
F8
0A
0A
FC
04
00
06
09
FA
F8
04
06
03
FF
07
00
F6
FF
07
01
01
FB
02
08
FD
F7
06
09
00
FE
F7
FC
01
09
FE
FF
FE
F9
FC
FB
04
FF
06
FB
01
00
FB
FD
01
FF
FD
07
02
03
F9
05
FC
06
06
FC
F7
03
FB
FB
F7
04
FE
09
F6
F9
0B
FF
FD
00
07
04
06
FF
08
02
F9
FD
07
03
04
09
FB
09
07
0B
02
00
FA
F9
02
08
FA
05
05
07
FB
F8
05
09
FC
04
08
01
04
03
03
05
FC
04
06
FC
FC
09
01
01
03
02
F9
FE
F9
08
FB
F9
F8
F8
01
FB
06
FD
FB
0A
FC
FF
08
04
07
04
08
FD
00
06
FD
FF
0A
F9
F9
FA
06
01
F6
F9
07
FE
04
04
06
FB
F8
00
01
01
03
FD
06
03
09
08
FD
08
FC
FF
FF
FF
F8
06
FF
FA
FA
08
08
04
02
0C
FF
FC
FC
07
05
08
FD
F6
03
FC
FB
07
F8
FB
09
03
FB
F7
02
FF
02
0A
FC
08
03
07
FD
01
07
06
08
04
FA
F8
F7
F8
07
03
00
07
FE
02
FA
03
F6
FA
F9
F6
03
FA
FA
04
0A
05
FB
FB
05
04
FB
00
FA
FB
07
03
06
05
0A
04
FC
06
02
F6
FB
07
09
07
FA
00
08
FD
03
02
00
08
FD
01
FE
07
0B
03
04
07
07
F8
FA
03
FF
F7
00
FA
08
FA
F8
03
03
09
01
07
07
06
05
FC
FA
FE
FC
00
00
F8
FF
F9
FB
03
FE
F8
FC
01
FB
0B
02
08
F7
F9
09
01
07
FB
F7
03
07
01
FB
06
00
00
F9
00
00
04
07
FA
01
F6
02
04
F8
F9
FD
02
FB
F8
04
FC
01
FB
04
05
FE
07
02
05
09
03
F9
04
FF
09
FB
02
FC
02
FF
08
FA
F8
FC
FF
08
04
00
05
FC
FC
07
FF
F9
FF
00
03
0C
05
08
01
FE
08
FA
FB
FE
07
09
02
02
09
FF
FC
07
02
0C
F9
04
F7
FC
FF
FB
FE
08
FB
FC
08
04
06
02
02
06
FD
FB
05
04
FF
07
02
FC
00
08
FF
00
FE
02
06
0A
F9
F9
08
04
F9
08
F9
08
02
FD
FB
FB
FB
02
FE
FC
09
00
09
02
FF
F8
00
07
04
FC
02
03
01
07
04
FE
FE
FC
07
01
FB
07
02
F9
01
06
01
07
03
FD
05
03
F8
FA
09
FD
FE
F9
FF
FC
06
FC
04
03
07
01
09
06
09
09
FD
FD
00
08
06
04
08
09
08
FB
03
02
FE
FF
F8
F9
FD
08
06
0B
F8
FE
FB
F9
02
02
06
FB
01
02
09
01
FE
01
01
03
F6
FC
08
00
FF
FC
F8
06
FB
F9
01
08
07
FD
FB
00
FA
F9
04
FE
05
F9
07
FC
08
06
05
05
02
F8
03
FE
FE
F7
02
FC
02
08
02
FA
F7
06
07
08
06
FB
F6
FD
FD
04
09
06
F8
02
FD
08
FA
FA
02
FC
FC
02
09
01
FD
05
FE
FB
F9
09
F6
FF
00
F7
05
FA
F6
F7
08
FD
05
F8
08
FE
00
FD
02
00
03
09
F9
F9
02
FE
05
05
F8
FA
FB
FC
09
06
FF
09
08
F7
FF
06
01
FE
08
FC
FC
0A
FF
06
F6
FC
FA
FA
F8
02
FE
F9
FD
07
F9
F6
08
07
05
F9
05
F8
F7
08
FB
00
03
FE
FC
FE
02
05
F8
FD
FF
07
04
FE
F7
FF
08
07
02
FD
F8
FB
07
0A
08
FA
04
04
FC
FD
FB
08
05
00
FA
0C
05
F9
02
F9
FC
01
08
F8
03
F8
00
FE
F9
05
FC
F7
FA
09
00
F5
FB
00
02
F8
FF
FD
08
06
00
00
06
04
F8
FD
FE
02
04
03
F9
04
F7
0A
FB
03
FA
FE
08
03
F6
05
09
04
F8
03
08
06
FA
FC
FC
05
01
06
0A
FD
09
01
03
F9
08
0B
F7
06
03
FC
08
FF
F7
FF
FB
02
FD
0A
08
06
F7
F9
F7
06
03
09
FA
F7
02
03
FB
FB
07
09
07
FF
FC
09
FC
01
F9
FE
09
05
FD
FE
00
01
FA
07
01
FC
03
FF
F7
06
03
08
06
04
FE
F7
04
04
F9
FA
FA
03
FA
FB
02
FF
FC
06
04
09
04
05
08
04
06
FE
F9
05
FB
FE
F6
08
FC
F6
FE
02
06
F6
FC
03
01
FC
FA
FD
09
FE
04
08
FF
FC
02
FD
08
00
FD
FE
00
FC
FC
F9
FB
0A
07
FE
F8
F9
02
07
FE
FF
01
04
08
F9
F8
F9
07
02
00
FC
09
01
FB
03
F8
07
FB
FD
F7
03
03
FD
04
07
FA
04
06
03
FA
02
00
FE
FE
00
FD
03
03
F7
FA
F6
FA
08
FB
02
05
04
FD
03
09
08
FF
FA
09
06
FB
07
02
FE
FA
08
FF
06
06
FB
FC
09
FF
03
F8
FE
F7
FC
F9
01
07
FD
03
00
06
FC
00
07
FD
F9
04
08
03
F7
00
FD
F9
08
FE
04
FD
FC
08
09
03
00
02
08
FB
00
09
02
01
FA
08
01
FB
01
05
00
FD
00
02
06
F5
F9
FE
07
08
FB
00
02
F7
FF
FB
05
02
FD
F9
FC
00
06
FC
F7
04
07
01
FA
03
05
04
FF
FA
06
F9
FA
F9
08
00
F7
09
07
FE
01
FB
08
00
05
06
FC
03
F7
08
02
F8
FB
05
F8
FB
FF
FF
00
06
F7
01
FC
01
F8
09
FB
02
F8
03
06
08
FF
06
FF
09
07
FF
FF
02
05
FC
F8
04
0A
FE
F7
FD
FB
FB
00
FF
04
02
FA
03
F8
F8
FA
FC
05
FB
FE
FE
FD
07
FD
FD
06
03
07
02
FB
02
F6
03
08
01
08
FB
06
05
07
09
FF
FB
08
FB
F8
FC
04
09
FB
FD
04
07
01
02
03
05
04
08
01
F7
01
08
00
F7
07
FA
FE
08
F6
F6
F9
FD
00
F9
01
FE
04
FB
FA
F7
09
0A
00
00
05
08
FD
02
08
FB
00
FA
03
F8
04
08
06
06
03
07
FE
00
0B
FF
F7
04
07
FE
FB
FE
03
FA
F7
FA
01
0B
F8
F8
05
FE
FC
03
06
F6
01
09
F7
00
FE
FA
09
0B
FC
FC
02
01
FD
FF
F7
F9
FD
F9
F9
04
FA
07
06
03
FE
F9
09
FA
02
09
FF
02
01
F9
F8
FF
07
03
07
FD
FD
07
04
08
01
FE
FB
F7
FF
F8
FE
03
0A
FA
05
03
FA
F5
FC
04
F6
FB
FC
04
0A
FC
FB
F6
FB
07
01
FD
FC
F7
03
F6
FB
04
01
06
04
01
FE
FB
00
05
04
FF
07
02
FA
07
03
09
07
0A
01
FD
00
FF
FD
F8
04
FA
03
F7
03
00
09
04
05
04
01
FE
FD
08
00
FE
F9
03
FD
FC
05
04
FB
02
F8
FB
FC
0A
07
FD
FF
FA
FD
01
FC
FB
06
FB
F7
FC
08
04
F7
FB
04
00
F5
F8
03
FB
F7
FE
FC
FE
F9
FF
03
08
02
FC
08
FE
01
FE
09
09
F8
05
FA
06
FD
FA
F9
FF
09
01
FC
F9
07
09
03
00
01
F5
FF
FB
FB
FE
06
08
FD
F6
05
FC
02
F8
FC
FF
FB
09
01
F9
02
06
FC
F7
02
FB
FC
F8
04
00
F7
07
02
04
04
09
F8
07
09
07
FA
07
03
05
FB
FB
07
03
07
FD
04
09
04
F7
05
04
04
FC
FC
07
06
F6
FF
06
01
FA
FC
FB
06
08
06
FB
FB
00
FD
F7
FB
07
09
FD
FD
06
06
F7
F8
FE
F7
FC
FA
01
FB
F5
FF
03
01
F8
02
03
02
08
09
FC
02
FA
07
FF
08
FE
08
F8
03
FF
F9
F9
08
FA
FD
F9
07
06
F7
FB
FB
FC
FE
02
03
04
FD
F8
F8
FA
F8
01
FE
FF
FB
06
05
FC
FC
FD
FA
00
05
00
05
FD
08
F6
0A
FF
FA
08
FF
04
09
08
01
06
07
FC
F9
05
05
04
01
0A
FF
08
FB
FA
08
07
03
03
FB
FC
FF
08
09
04
FC
FD
FC
0A
FD
FB
F9
FF
06
04
F8
F8
07
FC
00
02
00
03
01
F8
FC
01
0A
FD
06
FA
FD
FF
01
05
F8
05
F8
06
04
FC
09
02
F5
F9
01
08
06
FD
FA
FD
FD
FF
FE
F9
06
FD
FF
09
08
FB
00
09
01
02
03
FD
07
01
05
F8
08
FE
F9
09
0C
08
09
FB
00
06
FF
07
F7
00
04
FD
FB
06
03
03
FD
F8
FD
08
FE
08
00
03
FB
07
0A
06
FD
FD
06
F6
F9
FA
F9
08
FE
00
F7
08
03
08
0B
FE
FE
02
08
08
05
04
02
FC
08
F9
08
FD
F9
FF
FC
01
07
FB
FC
05
05
08
FF
FA
FF
FA
FB
09
01
FD
FE
03
F9
07
02
06
FF
02
05
05
FA
02
FE
FA
F7
F7
FD
0B
08
05
FE
FA
02
05
07
03
FF
06
08
01
05
00
F6
FA
FB
FF
FC
03
FE
07
06
08
FF
FA
FF
FE
0B
F8
02
F9
FA
F7
03
F9
06
FF
08
FC
00
04
F9
0A
F8
FA
FD
FC
05
05
03
FC
FE
FC
F7
FD
06
FA
03
F7
FE
FC
0A
07
06
00
FA
F9
09
FD
05
07
FA
F6
FB
FD
01
04
FB
FD
FD
01
08
03
06
FA
FB
FA
FC
05
02
FA
F9
00
F6
FC
00
0C
00
02
FB
FF
05
FC
F8
FD
04
07
06
FB
F7
FB
06
FA
07
08
02
FC
FC
07
FA
09
F8
FA
FA
FC
08
0B
03
04
09
F5
FC
00
F7
01
FD
FD
F9
02
FD
F9
FA
FF
FC
08
FE
FE
07
08
07
05
08
07
FE
09
FB
FB
00
0A
F9
FF
FA
F7
02
FD
05
07
03
07
01
04
FC
0A
05
07
08
F9
FF
F7
F6
08
F8
00
FC
08
FD
FB
FA
F6
FD
F8
FE
FA
F7
FD
FF
03
05
06
09
05
FE
F9
FB
FB
04
00
FF
F8
03
FD
FC
FB
08
00
F8
00
06
FC
FB
05
FB
FB
F8
05
06
01
02
FD
F9
03
FD
05
FC
FF
00
F9
FA
FA
06
08
FC
03
0B
F9
F9
FE
00
F9
06
FA
FC
09
08
07
02
FF
01
08
F7
FD
F7
05
02
FC
05
08
FE
F7
07
06
09
FC
F8
F9
08
F9
01
FB
08
FF
FB
08
FA
FE
F9
F8
F9
FA
07
F7
03
FE
FE
07
06
05
09
0A
03
06
F8
F8
03
04
08
F8
FF
FF
06
FC
FC
F8
F9
FB
FC
04
01
02
FD
FE
01
F8
FE
FC
00
00
F7
01
06
01
F9
08
01
FB
FF
FD
FE
FB
07
F8
FA
F8
FA
FB
FE
07
07
FD
F5
01
F8
0C
06
0A
F8
04
F9
FE
04
F8
FB
05
03
FF
FA
F5
06
02
08
08
F8
FD
FB
02
03
05
F9
03
F9
02
05
01
07
F8
06
F6
FC
F8
04
02
F7
03
FD
FE
FA
09
F5
FC
FD
F9
02
FF
FF
FD
F9
FD
05
F9
03
FE
FE
F7
FE
FD
F7
F7
08
FF
02
07
06
FA
00
F9
04
09
05
FA
FF
FB
FC
00
09
F8
03
FE
05
03
F8
04
01
07
FE
06
FD
04
01
F8
FF
FF
03
08
07
08
00
F5
F6
08
01
09
00
FD
F6
FE
01
FA
09
FB
07
FC
01
05
02
09
09
F7
FC
05
F8
FF
F8
04
00
F7
FB
FA
FA
F8
07
09
FD
0A
06
06
FE
02
FC
FF
00
F6
01
0A
06
00
05
FB
FF
06
FF
FE
F8
04
04
FE
F8
FE
08
03
FF
03
FC
02
FA
FE
07
F8
FB
01
08
FA
FD
F8
02
03
00
F7
03
F9
FB
FC
FE
FF
09
F9
FB
FD
02
F9
02
07
0A
FD
04
0B
01
09
00
05
08
03
FA
04
00
01
01
FA
FD
FA
0A
FB
03
F6
FD
05
02
FE
FE
03
00
04
FA
F9
05
FF
00
02
FF
FC
08
F9
07
09
FC
FA
00
F7
FB
F8
FE
02
01
0B
05
FC
F6
00
0A
FB
FB
02
03
FB
04
FA
01
FF
03
0A
07
FD
01
F8
05
07
FF
08
FD
FA
04
00
07
F9
FC
F9
00
00
03
05
01
00
FB
06
02
F7
FB
FD
FE
F9
FB
01
F7
09
FE
07
02
02
01
02
03
F6
09
FA
F7
00
FC
F8
FB
01
FA
FE
FF
F6
06
00
FA
FF
F8
FA
FF
FB
FD
F9
FB
08
FE
01
09
FB
06
00
FC
08
F8
FC
FD
07
FC
FE
03
04
06
08
02
FE
02
FA
F9
F7
FD
02
FE
07
03
07
FC
07
FD
FC
F9
FA
04
02
04
08
02
FF
FB
F8
FE
FF
06
06
02
F7
FE
03
08
FA
FA
FD
07
03
03
FB
F8
04
FC
F7
F8
01
05
02
02
F7
FB
02
FD
FC
FB
F7
FB
01
03
F8
FB
FD
F9
04
FF
F7
02
08
02
F7
F8
08
00
F7
05
00
01
F9
08
FA
05
FA
00
FA
06
09
FF
02
F7
00
FA
FE
02
FB
03
FC
06
09
FB
FB
06
03
F9
05
FB
00
06
01
FA
FD
01
FA
08
FF
F5
F9
F5
02
F5
01
07
FE
F9
FE
02
01
F8
00
08
F7
05
FA
02
01
05
F5
04
02
F6
07
FC
00
05
05
00
04
03
07
F8
07
00
F7
FF
0C
08
FD
F8
FD
FA
05
00
FB
F9
06
09
01
FF
F6
06
00
FB
05
06
01
06
02
FA
09
06
06
0A
FE
05
01
FB
05
05
F7
08
FB
03
FB
FB
FC
F9
F8
00
FB
F9
04
04
F7
FA
FE
FD
01
FE
05
FE
F8
FA
FE
02
05
05
FC
F7
FF
06
09
F9
FE
FC
F8
09
07
08
FC
04
FB
FC
FF
F6
09
F6
0B
03
05
00
FC
FA
FF
F9
09
04
00
FF
08
09
06
08
02
FB
FF
FD
F7
02
F6
FE
FC
FD
09
09
00
00
01
F8
0B
06
05
FB
F8
09
FC
F7
00
FC
F8
05
FB
00
06
02
F9
F8
FB
F9
02
FD
F9
00
01
FD
FD
FD
FB
F6
01
F9
0B
FC
01
07
F8
03
FB
FD
06
08
02
03
F8
04
FA
04
00
FD
FA
F7
FA
08
03
02
03
09
09
03
01
06
FA
FE
07
FA
FB
F9
F7
F7
08
FC
04
08
03
FF
F7
F7
00
00
04
FD
06
04
F4
F9
00
05
07
07
04
01
F5
F6
01
FF
07
00
FB
03
F9
02
00
06
01
FD
09
05
02
FD
FB
F9
07
FC
FB
FB
F5
FD
06
04
07
00
05
FD
FB
05
FF
09
00
FE
08
01
F9
00
03
FC
02
FC
03
FB
F7
08
00
FA
04
FE
08
04
FF
01
05
F6
04
07
00
04
04
05
00
FD
03
06
F6
08
FB
FA
05
00
FC
F9
FB
F9
08
00
FA
01
06
08
03
FB
F5
FE
02
00
FC
FD
03
05
07
FA
07
04
02
FE
F6
02
FE
FF
02
04
FD
06
08
FC
FC
02
FB
03
08
F9
09
00
04
0B
07
0D
00
04
FE
03
FB
00
FF
08
F9
01
F9
0C
F9
FC
06
FA
00
FF
04
F8
FE
05
04
F7
06
09
02
FB
03
FB
06
FB
05
FC
00
FD
05
04
01
03
00
FB
0B
08
F9
0A
06
FE
FE
F8
FA
00
FB
FB
03
06
FF
FB
05
FE
0C
FC
F8
FC
08
09
00
00
03
00
0A
02
07
FC
F5
FB
01
03
08
08
02
FC
02
FA
01
04
F9
02
F8
06
FE
F8
04
04
FD
F8
FA
FF
FE
05
02
FE
07
03
F8
FE
FE
05
F7
F8
08
03
F7
01
06
F9
01
09
FD
FF
08
FA
0A
07
07
FF
F7
0C
05
FB
F9
02
03
FD
07
FF
08
F7
FD
03
F7
FE
FF
F7
FF
FA
09
FE
FB
03
FF
07
F7
01
08
FD
F6
FA
00
FF
FB
09
07
03
FE
FD
F6
03
0A
05
FB
F8
02
F8
F7
08
F9
F6
07
01
05
0A
06
00
F8
00
06
01
0A
FC
06
04
FE
FA
FF
06
F5
FA
FF
07
FC
03
FF
02
07
05
FB
FA
F7
06
FB
F8
06
FA
F4
06
00
FA
0C
FD
FC
06
07
FD
F4
00
02
05
02
FA
FE
02
07
F5
09
F7
06
02
F9
00
FF
FF
01
FD
FB
04
FE
FE
FF
FF
00
F8
F8
FB
F6
07
06
01
0A
09
06
00
FF
09
FB
09
02
FC
01
F9
F9
03
05
05
FE
FD
04
06
03
00
FA
09
03
F9
03
F8
F8
07
06
06
F7
F7
00
01
07
FB
06
F9
01
FA
FD
F8
05
08
06
04
FE
07
03
08
FF
F7
01
F5
FE
05
08
07
0A
00
F8
08
08
00
02
01
01
FE
05
FF
FF
FF
02
09
08
FF
04
02
00
FD
03
F5
F9
00
FD
07
0B
F9
06
06
FE
FB
F9
08
FE
05
09
07
FB
FB
F7
FF
03
F9
08
F9
03
01
F5
07
03
00
08
06
06
FF
FE
F8
FE
08
FB
05
F8
0B
05
FE
05
0B
01
02
FD
08
00
FE
00
05
06
0A
FC
06
04
FD
F7
00
FB
00
FC
FE
03
02
06
04
FE
F9
FB
FA
FF
09
01
FA
FD
FB
F8
FC
06
FA
0C
03
FF
02
06
F9
FD
FD
FB
FB
06
09
0A
FC
F6
F8
F9
09
02
F7
F9
FE
05
06
03
04
FF
02
0B
03
07
03
05
F6
FB
F7
FC
F9
00
01
0B
FC
06
FD
FB
FD
FC
06
05
F4
F7
07
04
F5
06
06
FD
07
FE
FB
02
FF
FE
06
F9
03
09
F8
F9
05
03
F9
01
04
FA
09
F7
00
F7
FC
03
09
F4
08
04
FF
F6
09
FC
03
06
01
0A
02
00
03
FF
FD
F7
FF
FC
F8
08
05
00
F8
05
FD
02
FB
F5
03
F8
F4
07
02
FD
00
FA
01
F9
07
07
FD
01
05
07
0B
06
FC
FB
FB
F8
04
FF
04
06
07
F9
0A
02
03
FE
F5
FC
03
02
FC
F8
03
02
FA
0B
01
F9
07
08
07
FC
FF
F7
F9
01
F8
07
01
00
05
01
F9
F6
06
04
04
FA
08
02
07
FC
FF
FA
FD
F7
01
FF
02
00
01
F8
07
FA
05
04
FE
00
02
F7
F9
F9
03
FE
F7
07
01
02
FC
08
FE
08
09
01
05
FF
06
09
FB
03
FD
00
FE
FE
FA
02
FC
F8
09
FD
07
FA
02
06
FA
06
F7
FA
FD
F8
08
00
0B
F9
07
F7
01
F7
01
F9
F8
08
FB
08
02
09
03
08
09
06
F6
06
04
01
FB
F6
FF
FC
FF
F7
00
FC
01
FD
F5
F7
FF
00
05
03
FC
F8
F9
F9
01
F6
03
08
FB
04
06
F8
07
FA
FA
04
FC
03
FA
FE
01
FF
05
05
08
FC
F8
FE
FF
FD
04
F5
F5
00
FD
FD
FE
0A
F8
F7
04
FF
08
05
FC
04
F7
FE
FE
FD
FD
FB
FB
FA
FC
03
04
FE
00
06
01
F9
FA
FD
04
05
FE
04
FC
FC
FD
05
F8
F8
09
02
FC
02
00
06
08
08
08
09
02
03
03
FB
F7
F5
FB
FD
05
F7
FA
FB
00
FB
F7
F7
03
FC
F7
F7
03
09
06
FB
FB
04
F7
05
07
04
F6
06
F7
00
0C
FD
02
03
FB
06
FC
06
F9
05
02
00
FD
02
07
FB
F5
07
0A
04
00
06
FC
06
00
09
0A
FB
09
02
FF
02
FF
F6
FD
FB
FC
08
F7
FC
08
F6
00
FA
FC
F7
FA
0A
07
01
FE
06
01
07
08
FC
06
06
FF
F8
FA
00
F6
00
00
FA
01
04
04
F9
F7
FC
05
FF
00
00
02
FC
09
01
FD
F9
01
0A
F9
07
0B
F8
07
F8
01
FF
FC
FC
02
FF
FF
08
FD
03
FC
09
FE
03
00
FD
08
FE
08
FC
00
04
05
01
02
0A
03
0C
07
06
F8
06
00
F7
F9
FF
F9
FD
03
F9
03
F6
06
F7
09
FD
03
FA
07
00
FD
FC
08
05
01
09
03
0B
09
F9
FB
FD
FB
02
07
FB
02
FD
04
01
02
FB
FD
03
F7
05
FB
F4
03
F7
F7
F8
05
08
FA
FF
F8
09
00
09
02
08
FC
00
FC
05
06
F5
01
08
FD
07
FF
F7
06
FD
03
07
FB
FC
FC
02
01
08
F8
07
02
FD
F9
00
F6
FF
02
06
01
F8
FC
04
FB
FC
06
03
FE
F9
FE
03
FB
02
08
00
00
07
FB
FB
03
04
F7
F9
FA
01
02
06
FC
FA
FF
00
07
04
03
F9
00
F8
FB
F9
F8
00
0B
09
04
FD
F9
09
F7
F9
05
06
03
06
07
02
03
F7
05
02
FA
00
01
F6
FC
08
05
FD
01
FE
F9
03
08
F7
03
05
FD
0A
09
01
03
F5
04
00
F5
F7
02
FF
00
0C
06
03
F9
05
05
FF
FB
FC
F8
F7
06
FF
01
04
07
06
FB
00
FD
F9
FE
05
02
07
07
FE
0C
FD
FB
08
09
FD
F7
FE
FF
FE
FF
01
07
00
FA
03
F6
02
02
02
04
04
03
09
07
01
FA
09
F7
01
FF
03
08
02
FA
F9
08
05
07
F8
FC
0A
FE
0C
01
FA
06
FD
08
05
FF
05
08
02
07
02
FC
02
F9
01
FC
02
02
FE
FD
03
FA
FC
05
06
02
06
FC
01
F8
03
01
05
01
F9
03
FE
07
04
06
F9
04
04
FE
00
FC
04
F8
F7
02
F9
05
F9
08
02
FA
FD
07
FA
F9
FD
06
01
06
02
00
07
F7
F4
FE
07
03
00
F9
04
FA
06
FB
FC
FF
F5
FA
FE
09
FF
FA
FB
FB
F4
FE
0A
06
FA
FB
F7
07
F9
FC
F6
00
02
FE
FD
02
F8
08
FC
F9
03
0C
F9
FD
F5
F9
09
F9
0A
02
06
FB
00
F6
06
F9
0B
05
03
FD
00
F7
F7
F9
F8
02
05
01
06
FF
06
02
F9
06
F9
01
FB
F7
04
F9
FB
01
09
02
03
FE
F9
FA
FD
F7
F4
03
FD
05
FB
FA
F7
02
0B
09
02
02
FA
F4
FD
F7
FE
03
03
FF
FA
05
06
FB
00
02
0B
03
FE
04
05
00
01
00
F7
05
04
08
06
FD
FF
F5
F8
FF
07
00
04
F9
02
05
FD
0A
F7
01
02
FD
F9
F9
FA
08
FC
F7
07
00
08
FA
01
F9
FB
02
FF
F9
F7
FC
03
00
01
06
F8
08
FD
F9
F5
FC
FB
06
F7
09
01
FB
06
02
F6
FF
FE
FE
0A
FE
04
09
03
F9
FF
FD
FF
01
F8
08
FE
FA
F6
FA
02
00
02
F6
00
FA
FE
F8
04
03
05
F8
00
03
FD
02
07
FB
01
FB
05
FF
08
04
02
F8
FB
02
07
F9
FC
FF
FF
05
F7
07
00
06
02
04
06
06
08
08
F9
03
02
FC
F7
03
FB
FD
04
01
F5
F9
01
F7
FF
FB
01
02
FE
04
FE
04
00
0B
FD
FB
04
F7
01
07
05
02
04
F8
0A
F7
02
01
F6
03
FF
06
04
00
09
FC
FB
08
03
FC
FB
04
07
02
F7
05
FB
09
09
FB
FD
FE
02
F6
FE
08
FB
01
04
00
06
08
02
FB
FE
FD
F7
05
F8
FD
FE
06
08
F8
F9
02
09
FA
0A
04
01
FF
FF
06
00
F8
02
F9
06
08
F8
FA
01
01
FB
06
08
05
F9
06
FA
02
06
05
07
FC
05
04
FA
02
00
FE
01
07
FC
07
06
FE
FE
03
F7
05
00
F8
03
FE
FE
F8
FA
F8
FC
02
04
FF
06
06
F9
06
07
FC
00
00
F9
FB
FE
FE
F9
05
FE
00
FC
01
FE
FC
FD
FF
F7
07
07
F8
00
03
F7
F6
FF
00
FA
00
03
08
FE
05
04
06
03
09
FB
FA
07
0A
F7
FF
07
FD
FA
F9
07
08
FC
F9
06
03
06
08
07
08
FD
06
02
FE
02
F8
FB
FD
FA
09
FF
F9
08
03
05
F7
02
F7
0A
07
FF
00
FF
06
00
07
FA
07
FC
04
0A
03
04
01
04
00
FE
FB
09
00
04
F6
04
08
02
04
FC
FB
06
04
FA
00
05
07
09
FC
FE
FC
FC
08
FA
F7
FD
FA
00
09
01
04
F7
FA
08
FE
F7
06
02
08
FE
F7
05
FB
FE
01
FC
FE
F7
FF
06
00
00
01
02
06
FA
FC
F8
06
05
0A
09
F7
01
FD
FD
FB
FB
08
FB
FA
04
03
FC
04
FE
09
F7
05
FE
FC
FE
06
04
07
FC
07
01
F9
F7
FD
05
07
0B
FA
F6
07
FA
F7
09
FC
FF
F7
F6
01
07
06
F8
06
05
0A
0A
09
FB
F9
FF
FE
03
F9
FA
07
F9
FA
04
F7
F7
07
00
FB
FA
07
08
01
08
FE
02
00
FF
FB
F8
FA
08
04
09
F9
07
F7
01
F7
F7
F8
01
FE
FD
F8
00
FD
05
07
F9
F8
FC
05
06
04
04
0A
FB
06
05
FC
FC
FE
01
07
FA
04
04
05
00
F9
FD
05
04
F7
FB
FE
02
05
05
04
FF
07
FC
FB
04
F6
00
FB
04
F9
FC
08
F8
08
09
FC
FD
FA
FF
03
05
07
07
FB
09
FD
FC
FA
02
FF
07
00
03
F9
05
F7
FB
FE
F8
04
F9
FC
FA
00
07
07
FB
F9
08
07
F9
00
F8
FE
F9
07
FD
FB
FC
03
F7
F8
08
F9
F8
FC
FC
04
FD
06
FF
FD
07
09
F9
F8
09
FA
06
FB
F7
09
09
FE
F6
F7
F9
08
03
03
08
04
02
05
FF
FD
07
FF
FB
F8
01
09
FF
03
06
03
05
01
06
01
03
FC
FF
FE
FA
0A
05
FE
F9
04
FB
07
02
FB
01
05
03
F8
01
04
FD
FA
F6
FB
FF
06
F9
F7
09
05
07
01
08
01
09
FD
02
FF
FB
FF
08
F8
00
F8
FF
01
02
08
FF
FF
06
FC
03
F7
0C
03
F9
04
FD
06
05
FB
FE
F8
06
04
FF
08
04
05
07
07
07
FE
FE
F8
FE
FB
FF
F7
FD
F7
F8
05
06
FE
02
F8
F9
FC
FE
FB
F8
00
07
08
03
FE
03
F7
00
03
FB
05
02
08
03
00
08
03
F7
FA
05
07
03
FD
FF
06
FF
F9
F7
06
FD
02
03
FB
04
FC
FE
FB
FC
F9
F9
0B
08
F8
08
F6
02
FD
08
07
FF
FF
07
FC
03
06
02
01
08
09
00
F8
F7
05
05
09
FA
F7
FF
05
09
FF
FE
F9
FC
07
06
F9
07
F9
FB
04
01
F9
FA
06
01
04
02
F8
08
07
FE
FF
02
F9
FF
FE
08
04
02
FE
09
00
02
F9
01
00
08
08
05
07
FA
05
FF
FD
02
F9
00
FB
04
FC
F5
06
FB
06
FD
01
FD
FD
0B
08
F7
F6
FB
03
F9
F9
09
09
04
FB
F6
00
FD
FF
06
04
07
FC
00
04
FF
05
06
05
F8
0B
FD
FD
FE
FB
F9
07
0A
02
07
02
FD
07
02
07
F8
FA
06
04
F7
05
00
FE
F9
F9
F7
09
FF
00
FA
F7
FA
FD
02
04
08
07
FC
FF
F9
02
F8
03
0A
FD
07
FF
F7
09
06
06
FE
01
01
F9
03
08
05
02
02
06
01
05
07
F7
F9
F7
FD
09
FC
FB
01
03
03
01
FF
F8
FA
FE
FD
0A
03
FB
FC
F8
F9
08
05
06
F7
F8
02
F6
F7
01
FA
06
F7
F9
FA
02
FC
07
05
FA
03
F7
01
FE
05
00
09
FF
FE
04
FB
00
04
FC
06
09
02
09
FA
08
F8
06
03
FF
FC
F7
08
09
F6
06
04
03
0B
F7
02
04
F6
FB
00
04
05
02
FA
FC
02
04
06
FF
F9
01
FB
FF
F6
FC
02
F8
F7
04
01
F9
FE
04
07
06
06
0A
05
FA
05
00
FE
F7
00
F9
F9
F9
F8
06
F9
FF
05
01
08
09
05
03
FE
02
08
FE
F9
FD
04
F9
FF
FC
FA
02
FC
FE
09
02
00
FA
FD
FF
FB
07
06
00
04
FD
09
F8
06
FD
FC
09
03
03
04
06
03
04
03
FD
05
FF
05
04
05
FD
F7
FF
05
00
FC
FA
06
FD
02
02
00
05
FE
FC
FB
FB
07
FF
09
02
FD
01
F9
08
07
05
08
FA
FE
09
FA
06
07
09
03
FE
04
F9
04
FF
05
0C
FF
06
FB
FF
FA
F9
F9
01
F9
F7
05
FD
02
F9
F7
03
07
07
FB
FB
FF
FA
F9
F7
FF
03
06
06
F7
FA
FA
0B
03
00
03
02
09
F7
05
09
08
F7
FE
FD
07
04
04
FD
02
03
FD
05
FC
FD
F7
FF
FA
F9
04
01
FB
F9
FF
00
07
FE
F9
09
F9
08
07
02
F9
05
FB
04
00
F6
09
00
04
02
08
04
F7
F8
FD
FF
FB
FE
F8
00
01
FC
07
09
F9
07
F9
F8
05
05
00
FB
00
07
FA
02
0A
07
06
05
03
02
FF
F8
F7
FF
F8
FD
FC
05
04
FD
F9
F7
02
0B
F7
FB
04
05
FB
05
06
F7
F9
02
F7
05
FE
09
FA
FD
04
F6
00
09
FD
F9
07
FE
F9
0A
FF
F9
05
08
00
00
00
FC
F9
FB
03
F9
FC
01
FB
03
F9
08
F8
06
05
F6
FE
FD
FA
07
F8
05
02
FF
F8
05
FD
FB
FF
F7
08
08
F8
F9
05
05
05
F9
FD
FB
FC
FE
06
F7
FA
08
FA
03
FA
04
F7
03
06
06
F8
F6
F9
02
F9
F8
01
FB
FB
F9
F9
07
FC
F8
FF
F7
FD
07
03
FD
F6
09
05
FE
F6
F9
0A
09
F7
04
FF
F9
08
0C
F8
FF
F7
06
FC
01
03
00
FF
FF
00
07
F9
05
08
02
08
F8
07
01
07
00
FD
FA
F8
08
FC
FF
0C
FF
F7
FC
08
FA
09
FA
06
00
07
04
08
09
05
08
FF
00
FE
01
FB
FA
01
01
FE
03
FA
F7
0A
05
05
FD
05
FA
08
04
FE
06
05
F7
06
05
07
FB
FB
FC
00
FF
02
07
08
03
F8
FE
FF
FD
F9
07
FB
07
FD
FF
09
FA
FE
08
06
FE
F6
06
05
07
FE
04
01
FE
03
FD
FA
F8
FC
01
05
FF
08
FD
FE
FF
0A
00
FC
03
08
F9
FB
04
FB
FD
02
FD
F7
FD
F9
00
FE
07
FF
08
F7
03
00
FC
09
FB
FA
FF
FA
FB
FA
FF
07
04
05
FF
FE
FD
FF
04
FE
01
FE
F7
04
00
07
F9
05
02
01
F8
06
05
07
05
F7
08
FB
FF
08
05
FA
01
FE
08
03
F9
01
FF
09
04
05
07
08
FD
F8
06
04
F8
F9
07
F9
FB
06
FD
F9
05
F9
08
FA
06
FB
F9
07
00
FA
05
03
06
09
F7
F7
08
FD
FB
07
F8
03
FE
FF
F9
F6
FC
FF
FA
FD
FA
04
0A
0A
06
FA
F8
05
FC
01
FF
04
02
FA
F9
05
FB
05
06
07
F8
02
FD
F7
F6
00
09
01
01
07
03
09
04
05
03
06
06
08
FE
09
08
FE
FC
00
07
F9
09
05
01
FF
F9
0C
FE
07
02
FD
06
F8
07
FE
FA
06
FB
09
FD
FC
09
F7
09
07
06
06
07
F7
FD
F8
FE
05
07
02
03
FA
FE
F9
02
03
06
F9
02
02
FB
00
02
F7
09
00
02
FB
09
07
FB
FA
09
FC
01
FF
F8
F8
06
09
05
FE
09
FC
FD
05
00
FF
F9
00
FA
05
02
04
04
06
F7
FC
07
03
06
06
08
04
08
01
FA
02
01
FC
00
FD
04
03
01
FA
FB
04
F8
04
04
FC
08
FC
FA
00
FD
FF
FA
07
06
07
06
FB
00
FA
05
FD
FC
FB
04
FD
02
0A
F9
FA
FE
FC
05
01
04
F8
F9
F9
02
FC
F8
03
FF
F8
01
0A
FE
FE
07
09
FF
FB
03
02
F9
05
F9
FE
FC
04
07
03
F9
FA
F8
F7
FE
03
09
06
08
00
F7
03
FB
FD
04
F9
04
01
F8
08
FC
06
05
F9
FF
03
02
F9
FB
F8
FF
03
FB
F9
06
F9
06
02
04
FB
F8
FA
FA
01
F9
09
FC
08
00
06
05
05
08
09
09
FA
09
03
00
FD
0C
01
F7
03
FC
06
03
08
01
08
01
01
FD
FC
FE
FC
02
00
FA
F8
FD
FF
09
02
FF
F9
FE
07
F6
F7
03
FB
02
07
03
06
03
F7
FA
09
03
00
F7
F9
01
06
FF
FC
FD
00
06
00
03
F7
F9
08
07
07
05
F8
05
06
08
FF
05
07
FF
F7
FB
FF
FE
09
03
08
09
FE
FC
04
F7
09
FF
06
09
02
F7
00
FD
06
07
07
FE
06
08
06
09
06
FF
FD
FA
F9
F7
FD
F8
08
05
07
06
F9
F9
FD
FB
06
01
06
00
05
06
09
FF
FD
09
F9
05
05
03
F6
FF
F9
08
04
FE
09
F8
FA
09
FC
F7
FE
FE
FE
FD
FD
FF
00
04
FF
0D
03
F6
04
FD
09
02
FE
07
02
F9
05
FB
F7
F8
03
08
06
FF
05
00
FD
07
07
FF
F7
FF
00
08
06
06
06
05
0A
03
FA
FD
04
F9
0A
FC
F8
07
00
FC
FE
04
F8
07
06
01
08
06
FD
03
FE
03
06
FA
03
02
06
07
F6
F9
08
FA
F7
08
FE
04
FF
07
F9
04
FB
FB
08
09
F9
F7
F8
FB
FD
01
FE
FD
08
06
03
07
07
FE
03
FE
05
F9
FD
01
F8
F9
01
02
FE
01
FA
04
09
FC
06
07
04
08
05
03
F7
FF
09
FD
05
09
FB
FC
FF
00
03
FD
08
01
FB
04
04
FA
F9
FB
FE
00
08
03
FE
F9
02
F7
06
01
F8
F9
F8
FB
03
05
F7
02
F9
FC
FD
FA
06
FA
03
FC
FD
F7
FC
00
00
F7
05
FD
03
FE
FB
FF
F8
FB
03
06
03
FC
09
03
01
F7
04
02
FC
F9
FB
08
03
03
F9
03
03
FB
FF
F7
FD
01
FA
08
09
FF
FF
09
03
05
09
F6
04
01
F6
00
FB
06
03
F7
FE
04
03
06
04
03
03
03
F9
05
FB
09
FC
FF
08
0A
FA
FF
FD
02
FE
09
00
FA
01
F7
FE
FB
03
FE
01
03
F8
FF
01
FC
05
F6
08
FC
09
09
08
0A
F8
01
08
FC
06
04
02
FA
07
FF
FC
02
F9
03
06
0A
FA
06
FB
FC
04
08
F9
07
FB
04
00
0B
FF
05
07
00
00
09
06
FC
FF
FA
F7
FC
FA
00
F5
F8
0A
0C
09
00
FF
F9
03
05
05
FF
02
09
09
F9
09
08
FC
07
FE
FA
FD
F7
FD
F8
03
07
F5
06
FA
01
08
FF
FC
07
09
F8
09
06
05
05
06
08
05
02
FC
F5
03
FE
02
FF
00
FF
FD
08
F9
01
01
01
FC
01
03
04
F8
02
02
09
01
06
03
04
03
02
FA
03
FB
F6
05
02
F9
0C
09
08
FA
FE
F9
05
F9
F7
04
08
06
F9
03
FB
05
F8
07
07
FF
FA
FB
01
F9
FD
F7
FB
F9
05
F8
F9
07
FA
FC
03
FE
FA
06
F8
FD
08
0B
04
F8
F8
09
05
07
FA
03
0A
FC
F9
FB
08
F6
07
08
02
FF
FD
06
01
F7
FD
FE
F9
F9
01
06
02
06
F8
01
05
00
FF
02
08
0A
FD
00
09
07
FF
08
00
FC
00
04
F6
04
09
FF
03
FF
02
06
03
F9
03
0B
00
F7
06
01
09
FF
05
02
07
F7
FF
FC
FD
07
FB
FD
FB
F7
02
03
06
08
07
F9
F9
F9
00
F9
00
F9
FA
02
04
07
FE
FB
08
FD
03
02
F8
FD
F8
03
FF
F9
00
0B
01
FD
07
F9
FB
00
01
FE
09
F9
08
0C
FA
07
06
F8
02
01
05
02
00
FA
06
0A
01
06
FD
FB
FE
0B
01
F5
FC
FD
FD
F7
0A
F8
F6
09
FE
07
F7
FC
F9
08
FB
FB
F9
FA
05
FE
02
F9
02
05
07
03
06
F7
FA
F9
F6
02
FB
07
00
FF
FC
05
03
FC
05
FC
07
FA
FA
04
05
04
01
00
0A
09
08
FB
04
04
07
F8
03
0B
01
F9
03
07
FB
04
FB
FE
FA
FE
F9
08
FA
03
0A
09
05
02
09
05
07
07
06
02
07
03
03
09
07
F6
01
FB
F7
FA
FF
07
FE
F8
00
FF
00
00
06
FC
05
09
06
0D
F7
FB
03
06
07
04
FF
03
03
F6
09
0B
06
F8
FA
07
FE
00
FC
F7
07
05
F7
06
09
FB
FB
F9
FB
FE
F7
FA
F7
FD
F7
FE
FB
FA
F6
FB
F7
FD
09
FF
FE
02
03
F7
08
09
00
01
02
F8
07
F8
04
FA
05
F7
02
09
F7
01
03
03
04
00
06
01
06
FF
0B
FA
02
09
FC
08
FB
05
07
F8
F9
F8
FB
04
0C
F7
03
03
F8
02
FA
FB
06
08
FE
FF
06
09
06
FD
03
01
F9
F7
03
01
FD
03
F7
06
FF
FC
0C
FE
05
09
09
04
FE
02
01
05
08
09
04
07
F8
03
03
FE
FF
FE
F7
04
FE
06
02
FD
01
02
F7
FF
09
FA
FE
F6
FB
01
09
FB
F7
04
01
02
FC
06
FB
06
F9
FD
03
FF
04
FF
F7
07
00
FA
F9
FF
06
F8
03
F8
FE
02
08
08
05
07
FA
0A
FB
02
FC
FF
FA
F7
FE
09
F9
01
01
FA
06
09
08
F7
08
05
F8
01
0A
01
08
F7
03
05
08
09
FF
02
FE
FA
03
F7
03
FA
02
FE
06
06
FD
09
F7
F7
01
01
FD
FC
FF
05
05
FD
02
FA
01
02
00
FC
06
07
F8
07
F9
FE
FC
06
00
08
00
FC
FC
0A
FB
FC
FD
0A
F9
FF
F9
0A
FE
09
05
FA
F8
F8
05
07
02
02
F9
09
FF
FF
04
FC
07
FB
F7
02
01
06
08
F9
FD
F9
FB
F8
01
05
02
FC
FC
08
07
FC
01
FB
07
06
F9
05
02
FD
FD
00
FB
FA
F7
07
00
FB
06
F7
08
07
00
F7
F8
03
03
00
09
F8
01
FC
00
FD
FD
F9
F7
08
F8
06
02
FF
FE
06
FC
02
F9
FE
06
05
09
F8
FC
F8
03
FA
FC
FB
FB
F7
F9
06
05
08
FE
F9
06
FA
FF
04
F7
03
06
0A
FB
03
FF
FA
07
01
FB
05
F9
03
04
0B
FE
F8
FB
00
01
FF
FA
FE
03
06
FB
0B
FF
00
FB
05
06
06
FD
F7
FE
FD
FA
04
09
F8
03
08
FB
F7
F5
FE
F8
05
09
00
FA
F8
03
FD
05
01
08
01
08
0B
FE
09
FA
F7
FA
FB
F8
03
00
00
08
01
FC
02
07
09
06
03
F9
00
FA
04
02
FB
FD
FD
08
03
00
0B
01
F6
04
F8
09
FC
F9
F9
09
F5
FD
FF
F6
04
FB
FB
00
FA
FD
F7
01
FA
03
07
01
05
00
FA
02
09
02
FE
FF
07
FF
F8
08
07
FE
07
F8
FF
00
FB
F7
FC
FC
08
06
02
00
00
07
FC
03
02
FA
04
F8
09
04
05
07
04
FF
FF
08
00
04
06
FA
FF
03
F7
00
FE
07
FD
07
05
F7
06
FD
FA
06
F7
00
FF
FA
FA
FC
FA
00
F8
F8
F7
FB
FE
F6
00
FF
04
07
F9
01
09
FF
F6
04
FF
FC
FE
05
00
FF
04
F9
05
F8
FC
04
FA
08
F9
0D
06
00
FB
08
FB
F8
01
09
08
08
03
08
F6
06
08
01
F6
00
F8
FF
FB
03
FB
03
F5
00
08
01
FA
F7
FE
02
FF
FD
FA
FE
01
FD
F8
FC
08
FF
0C
06
09
FE
F9
FE
05
F9
07
02
04
F8
0D
07
F5
F8
0A
FC
09
05
F9
FA
FB
06
06
07
F9
06
0A
FC
0A
F9
08
01
05
01
FC
04
F9
FB
FD
05
FF
01
00
05
F9
F9
FE
00
F6
F7
04
FB
05
09
00
03
0B
F7
FE
03
FE
FB
FD
06
09
FB
06
06
FE
08
08
01
03
FE
F8
0A
07
FA
FF
09
00
FD
F7
FB
F8
FD
01
0D
04
F9
02
00
06
08
09
FB
FD
0C
02
04
F9
FF
01
07
F8
06
F7
08
07
04
F9
02
00
04
FA
01
08
02
FD
FE
00
F7
FF
09
FC
09
06
03
04
FD
FB
08
FC
FB
FA
09
06
03
05
06
F9
03
00
04
01
FC
FB
03
04
06
FA
03
05
03
FD
FF
FE
02
04
03
FC
02
FF
08
FE
FE
0A
FA
F6
01
FF
F7
00
F9
FF
00
F9
FF
F5
FD
01
FC
06
FA
00
04
FF
03
01
FA
FA
09
FF
F7
04
01
FC
F7
01
04
08
09
06
FF
08
F8
03
0A
F7
08
05
FC
06
FA
01
0C
FB
FC
FD
F8
07
03
01
F9
F9
00
FA
05
05
FA
06
06
09
04
F8
01
FB
FC
03
02
FF
00
04
04
FA
08
FC
FA
FA
FA
02
F9
07
FC
FA
06
02
08
02
FF
01
05
F8
07
08
F7
FF
FB
F9
05
06
06
04
03
FC
03
FD
FF
FA
FB
FD
06
03
00
FB
FA
FF
09
01
08
03
08
FF
00
FB
07
01
FA
08
06
00
FF
FE
FE
FF
F8
F7
03
FC
F8
02
06
00
FF
04
FA
F8
04
09
06
FF
F8
F8
03
F9
02
08
04
F9
00
F9
0B
F9
07
02
03
FC
08
FB
05
F8
FF
03
03
FD
FC
05
03
F9
09
08
05
06
0A
08
F8
FD
F9
F8
F9
F9
FC
FC
00
06
FD
01
FC
FD
07
05
08
02
F9
F7
FB
FD
08
09
00
FD
05
0D
05
00
09
03
01
FC
07
00
04
02
F9
08
FB
04
FA
F8
FF
00
FB
FA
05
F6
00
FD
FC
02
09
FD
FE
FF
FA
07
01
FD
01
FA
F9
F8
02
09
03
FB
08
F7
03
FD
FA
F9
F9
04
F7
FB
03
F9
02
00
F7
FD
01
FF
07
FC
FC
06
09
F9
F8
FB
07
01
06
F8
FD
F7
01
FA
08
F9
04
FE
F7
F6
0A
09
07
FE
F8
07
05
F6
09
07
FB
09
09
FD
FC
03
05
FB
08
00
FF
09
02
09
09
02
FB
01
06
FE
FC
FD
09
FC
06
05
FE
F7
FE
08
06
09
F8
00
FB
09
04
00
05
07
FF
FD
04
06
01
FB
FC
04
FB
FC
FC
FF
FB
09
FB
FD
07
03
00
FF
07
07
02
FA
0C
FB
FD
09
FE
FD
08
FD
02
FA
FC
00
FD
05
02
FA
08
FA
06
FC
FB
F6
FA
02
06
FE
03
02
08
09
08
FC
FD
F7
02
FE
FF
FD
06
FE
02
07
00
02
02
F8
02
03
09
FE
FF
01
06
FE
0A
03
0C
F9
FE
FF
07
FE
08
05
FE
00
01
FB
FF
FB
00
F9
05
FD
04
06
FC
04
FA
FF
04
FE
F7
FE
09
08
03
09
09
FD
03
F9
00
08
03
F8
08
F8
06
05
F7
F7
F8
04
FA
02
FC
04
05
09
05
0A
FD
00
02
05
F8
FE
05
F8
00
00
FA
09
04
FF
FB
02
07
FD
FF
01
00
FF
06
FE
FA
FB
06
04
FD
F7
FD
FD
04
04
FC
FD
05
09
F8
FE
FD
08
04
FD
06
FC
FF
05
08
FF
00
05
FB
08
FD
F7
00
00
08
FC
FB
04
FF
FB
FD
01
F8
03
09
F8
01
03
FA
02
FA
FD
07
07
08
03
F7
03
03
05
05
06
FB
FD
06
01
F9
09
FC
05
09
06
05
06
02
F7
08
08
FD
05
02
07
01
04
09
02
FA
03
F7
08
04
FF
F8
01
09
02
F8
0A
03
07
FA
08
05
FA
02
00
FD
02
F9
0A
FA
FE
FD
04
05
07
F9
00
04
F7
0A
02
FD
F8
00
FF
03
F8
09
03
00
F9
FA
01
FD
07
F8
03
F9
00
09
F9
01
FA
00
01
FC
08
FC
00
07
09
04
07
F8
06
08
02
04
FB
02
08
09
02
01
FF
02
FF
05
FC
FF
F8
FE
F9
F7
04
FF
FB
08
08
01
00
01
F7
05
FB
08
09
FF
FE
FA
FD
02
F7
FE
F9
F7
05
FE
00
FB
F9
07
F8
F8
08
01
03
03
08
F7
FF
03
03
FD
FE
FB
04
FE
FE
06
02
F7
05
06
03
06
FF
FF
FA
03
F9
FD
06
FA
05
05
F9
03
FE
08
00
06
02
09
F7
01
F8
06
FD
F8
FC
08
F8
FA
FA
FD
FC
FC
02
04
F9
08
F8
FA
FF
04
02
08
02
F9
FC
06
F9
07
FF
03
00
09
07
FC
FB
FC
05
FD
05
02
00
01
09
F8
02
FE
03
09
08
07
FF
F7
FF
FE
FF
07
FD
FB
FB
06
02
FB
FE
F8
FC
00
FE
09
F8
04
F9
0B
FA
08
FB
04
FF
07
F7
05
04
FA
04
FE
FB
F7
0A
04
02
06
F8
07
02
FE
01
FA
F9
FC
08
FC
F9
01
FE
02
05
FC
FA
FC
FF
05
FB
FE
05
04
FE
F7
06
FE
0B
F8
FD
F5
FF
FD
09
09
02
03
08
06
09
09
01
FD
07
09
FF
02
03
FA
00
09
FA
FD
FE
01
08
F8
04
05
F7
FC
FB
F6
FF
FA
F6
FD
06
FB
02
02
05
07
01
FD
05
07
04
FC
FD
F8
01
F8
FD
F9
FD
F8
01
08
04
F8
FD
01
FC
08
F8
06
FD
05
03
FB
08
FB
FA
08
F7
FB
02
0A
00
F7
06
F8
FE
09
F7
FE
08
FF
FF
08
FA
02
08
09
04
F7
FD
F6
F9
04
FF
FA
00
06
FE
06
02
04
08
FC
FA
09
04
F9
08
03
01
06
F9
07
07
FC
05
09
03
F8
FF
05
F6
00
F9
F7
F6
FA
06
FA
07
FB
FE
09
03
FD
05
06
04
F8
03
F8
09
FC
07
02
05
FE
00
08
F5
07
FA
F9
03
06
04
09
03
FE
FD
04
03
F9
00
04
00
05
FD
08
04
FF
04
04
F9
FA
01
FA
04
09
F9
F7
05
FC
02
06
F8
F7
F9
01
FF
09
00
05
FD
05
09
05
FD
FD
05
F6
FF
05
08
03
08
0B
07
F7
F7
F8
07
05
FB
FA
00
FF
FB
07
FD
04
FD
03
FA
F7
07
0B
00
00
F9
FD
FF
06
F7
FC
FA
FC
05
FF
0C
FB
F8
09
05
FC
02
07
F9
F8
00
07
06
06
FD
09
04
FD
FD
FC
00
05
FA
F9
05
00
F6
F8
0A
F7
F8
F7
07
FA
FA
03
06
06
01
F7
03
07
06
08
04
04
04
FF
F7
04
F8
04
F8
F7
00
01
06
FA
08
F9
FD
02
FB
08
FD
05
FD
00
04
02
FE
F8
05
FF
06
02
FF
08
F9
05
FB
05
02
04
00
F7
04
FA
03
00
FA
08
F9
F7
FA
02
03
FB
FC
FC
F8
03
02
02
F9
04
09
F8
03
FB
04
01
FB
04
02
FB
FE
04
08
F6
00
03
08
05
F6
01
F9
F9
FD
F9
F9
F8
F9
FC
FD
05
F9
FC
02
02
04
04
FA
FD
03
07
08
04
F9
FC
FC
09
07
FA
FE
F9
06
FD
F7
02
00
08
05
01
03
05
04
FA
F6
FE
F6
04
00
02
09
FA
FD
06
00
01
01
02
06
F9
02
03
08
03
FF
F7
04
04
02
F9
06
09
F8
F9
FD
08
FF
08
03
02
05
FA
03
01
01
FD
F7
FB
00
03
F6
09
F7
06
02
08
F7
FA
06
0B
F9
FF
FD
02
FC
FF
FC
06
FF
F9
FF
05
00
09
06
04
FC
03
05
00
F9
08
FA
04
09
01
FA
FA
F6
FA
04
02
FF
F7
F7
07
05
01
F9
08
08
FB
08
04
FB
06
00
F7
FC
04
00
06
09
01
FA
02
07
07
02
09
07
00
FD
05
F9
01
03
07
08
01
02
05
08
08
F6
09
FC
07
01
01
07
02
04
FC
FD
F7
FF
FB
07
FC
06
00
01
F9
01
05
06
03
07
F9
01
03
F6
F9
04
0B
FB
03
04
FA
03
FC
07
08
06
F8
04
F9
02
08
04
03
FA
FD
06
FC
FF
FD
FD
06
FD
05
FA
FB
FB
01
FB
F8
FD
F7
05
FE
F7
FD
FF
02
04
04
0B
05
01
F6
FC
F8
07
01
FA
01
03
09
01
F8
F9
06
07
02
02
F9
FD
F8
07
05
05
F9
09
F8
09
FB
04
FE
FE
05
F8
F9
09
01
03
FB
0B
FF
07
08
05
03
02
01
F8
05
03
02
08
FC
FD
F9
03
00
09
09
05
08
00
05
05
03
FE
F8
FF
FD
02
02
FF
03
F9
07
FD
FA
08
05
03
FA
FE
F8
FF
FF
02
FB
FE
07
FF
03
05
00
04
FE
09
07
FF
01
06
03
F9
F7
F8
FC
08
FB
FB
01
FA
02
F8
06
FF
02
05
F9
08
F8
FE
FE
02
05
F8
F9
09
09
05
FB
FA
FC
FB
02
F6
FE
FD
07
05
00
FA
07
FA
07
00
FD
FC
08
0A
08
FB
FB
06
03
05
FD
02
01
FC
03
07
09
FE
08
FF
FC
FD
FD
0A
FB
FA
F8
F8
FE
F9
06
02
FF
06
03
F9
06
F5
FA
00
FE
06
05
01
07
03
F9
FF
01
FF
05
F8
FD
F7
FF
06
FC
F8
FF
F8
09
09
FA
07
F9
01
08
09
04
00
09
09
0C
03
F7
09
F6
FC
FA
08
FC
05
02
F7
FD
01
F6
06
07
FF
07
05
03
01
02
09
01
FC
F7
04
06
F8
F8
06
FC
FA
07
F7
08
F9
03
04
06
03
08
09
04
08
05
FB
F9
06
06
00
05
07
F8
03
F8
00
FB
FF
00
FF
F7
02
04
06
F7
FC
07
0B
FF
01
FD
08
05
09
F9
FD
09
FC
FD
05
01
FB
00
03
FD
0B
00
02
02
F7
F6
FB
07
01
07
02
04
FE
FE
FC
FA
02
F8
08
04
06
FF
FA
03
07
FF
FA
FB
F9
FD
06
F9
FC
FB
01
FF
03
0A
04
F8
07
03
F9
FB
F8
FD
05
05
00
FB
FC
00
F8
05
08
FD
01
FF
09
04
00
FB
FE
FE
07
02
FD
06
05
02
00
03
06
FF
F9
F7
F6
FE
05
04
FD
FF
03
F6
03
00
F8
02
FE
05
FC
FB
FB
FC
F9
05
FE
06
03
FF
01
01
07
FC
04
03
FC
F8
FF
06
FB
FB
FF
04
00
04
04
09
07
FB
02
FB
07
00
F9
04
F9
F8
0B
06
FF
00
F6
00
FE
F7
01
FA
0B
02
FA
F9
F8
F6
00
08
F8
00
07
F9
01
FC
FA
03
06
0A
04
01
04
04
08
02
02
01
05
0D
05
FE
FE
FF
FE
09
04
00
09
09
05
00
FC
00
F6
03
06
FF
05
FB
F8
0D
FC
FA
00
FD
08
FC
FF
FD
FC
F7
FD
00
07
02
00
FE
FF
F7
01
0C
01
FC
FA
FE
FC
F8
F6
FF
02
04
F9
FD
03
FC
06
05
FE
02
FC
00
04
04
FB
FA
07
FB
FF
FC
00
0A
FB
05
F5
01
06
06
FF
06
08
00
00
FF
FC
F8
F7
F8
02
F9
03
F5
FA
FA
F7
07
08
08
04
02
04
F7
02
FB
FE
FF
08
01
07
F9
FA
09
FA
03
02
FE
08
06
05
FB
08
08
07
02
FC
FB
04
09
F9
FE
FA
05
F9
01
05
00
FA
04
F8
FA
FD
0A
FC
05
07
00
05
08
FB
08
06
FA
F5
FC
04
F7
05
08
F9
01
FB
00
FA
F9
FE
FD
08
01
FA
06
FF
08
02
F9
FA
F7
08
F7
FD
06
FE
FA
07
FF
03
00
02
FB
06
F8
03
F9
FA
00
04
FB
FC
07
FE
FC
0A
07
F5
00
FA
08
07
FB
FF
FE
FF
08
09
F5
F8
FA
FA
FF
02
05
00
F9
F9
F7
07
05
04
04
01
09
FB
09
F7
FB
07
05
08
F9
06
07
FF
FC
03
01
FE
02
FD
0B
FF
04
08
F8
F8
07
F7
04
FC
08
FF
0C
FE
06
07
FC
FF
07
05
FF
FC
FE
00
06
05
FD
FD
07
F8
FD
FE
06
F6
07
FB
03
FF
01
01
08
00
02
06
07
FF
F9
08
06
08
09
01
FE
FC
02
FB
FE
03
05
F9
FA
01
05
04
09
FE
07
01
07
0B
09
05
06
00
01
06
FE
F7
F8
05
FA
F9
F6
FD
08
02
FF
02
0A
FD
F8
0B
FF
FE
F6
06
07
F6
04
0A
FD
06
02
FA
FA
06
FA
FC
04
FA
FB
F8
FF
F6
08
06
09
05
05
FC
F9
FB
0A
00
F7
FD
00
01
02
09
F8
07
F9
02
01
FD
FB
03
FF
FC
08
FB
FE
05
05
0A
05
07
02
F6
01
FC
04
FB
FE
05
FB
FA
FA
FD
09
F8
01
05
FF
F8
F8
F6
F6
FF
F9
07
09
F6
F9
02
05
05
0A
00
01
FB
F7
FF
FB
04
F4
02
09
07
FD
06
FE
01
FE
F7
04
00
01
06
FF
FD
09
FC
02
F5
FF
07
FD
08
F9
06
FA
07
05
09
FD
FF
FC
06
09
F8
00
F8
01
06
08
01
FE
F7
06
F6
F9
FB
FB
06
09
0B
00
06
FC
05
F7
07
F7
00
FE
06
00
F5
06
FB
02
01
FD
FF
0B
05
FC
04
09
02
04
F9
0A
01
FA
FB
07
F7
F8
01
09
09
06
F8
FE
07
FB
FD
F6
02
02
F7
F9
05
00
F7
01
FC
05
08
FC
FB
08
FB
02
08
06
FC
00
FF
F9
07
07
0C
04
FA
02
08
08
01
07
FF
F8
FE
06
FB
0A
08
03
FA
01
0A
01
06
07
05
FE
FC
F7
FC
F7
01
FF
07
02
FC
F9
01
F6
FB
FA
01
FF
09
08
FF
FD
05
F9
F6
04
FA
F8
FD
F6
F4
F8
F6
07
FF
F7
04
FB
FD
09
09
FF
07
FC
FA
04
02
FE
04
FC
FE
F7
08
F9
05
FE
09
FD
FA
01
06
FF
04
0B
FA
06
02
F7
0A
08
02
05
0A
FC
01
03
F7
FA
F7
02
05
F7
FE
F5
06
07
FB
FA
F9
04
00
00
F9
03
01
08
FD
01
04
F7
FC
00
F8
FC
FA
07
00
06
05
F7
F9
08
07
FD
04
F7
FE
FF
03
FE
0C
FF
00
FB
00
F7
FB
00
01
03
02
F9
03
06
FE
FA
FE
09
0A
FC
F9
FA
03
03
02
F9
FC
02
06
FA
04
06
FA
F9
FC
02
09
FE
00
09
02
F9
03
07
02
F8
FF
F9
F8
FD
09
07
08
06
FC
09
05
07
F7
FA
03
F9
FA
F8
FC
02
03
07
03
00
FA
FB
03
0A
FA
FC
03
01
03
03
00
05
FC
05
00
04
FA
08
00
F5
FD
06
F7
FD
09
0B
03
00
03
04
03
00
00
05
07
09
FA
01
F8
FE
02
03
FF
F8
FA
FA
04
F8
02
00
03
FD
FE
FD
02
FD
07
FE
09
FE
00
F7
04
F7
02
FA
09
F6
04
04
02
08
F9
04
09
FB
03
01
08
F9
F7
FE
FA
0A
FD
F9
0B
F6
08
00
FA
01
08
FE
09
FC
F7
FB
FE
03
FA
F8
06
03
0A
06
01
FC
02
FF
FC
FA
07
00
00
FB
F8
09
FF
FE
02
03
02
FE
02
02
F8
04
00
00
03
FF
06
FB
07
F8
07
FE
FC
08
F9
F6
09
09
F8
FC
02
02
FA
FD
02
FD
04
FF
F6
FF
F9
02
F7
05
04
F8
FA
03
FC
01
02
FF
00
02
04
F7
06
FB
0B
06
F9
FF
F8
04
FE
05
FF
FB
08
05
0B
FD
F5
05
FA
F9
0A
06
09
02
FF
F8
07
08
FB
F6
02
FC
00
01
00
FA
FC
FC
04
0A
03
06
FC
01
FE
FB
02
00
FC
08
05
FA
05
08
06
08
03
FF
F8
03
01
FF
08
FE
FA
F6
03
05
09
05
FD
05
07
07
F9
F9
FC
05
05
FD
07
F9
09
07
00
0A
FA
0A
F9
FD
05
0B
FC
06
FE
FE
08
07
04
FE
F5
00
FE
07
F7
F9
07
FB
FD
06
05
09
F5
FB
08
04
F5
F8
FA
F8
04
F9
F8
02
06
07
FF
F9
0B
FF
04
09
FB
FA
F7
FF
F9
05
F8
06
F8
0C
05
FD
07
F4
07
08
FF
FD
FD
F4
F5
FE
FB
02
F8
FE
02
00
02
03
FB
09
FA
FC
04
0B
04
03
FE
09
01
F8
FB
F4
08
00
FE
03
F8
01
F5
01
F7
08
FB
06
FA
F7
FF
F7
04
05
04
04
00
FC
FF
08
05
00
02
FF
05
07
01
03
04
09
00
08
04
04
F7
0B
02
FE
03
00
02
F8
03
04
F8
09
FE
09
F4
FE
F8
F7
09
F8
FB
00
02
0A
F7
F9
F7
01
02
04
F9
FD
08
09
01
00
F9
02
01
06
FA
F7
02
FE
09
FB
F9
05
F8
03
01
07
08
FB
FE
FE
08
FB
00
03
FE
FF
01
07
FD
FB
FD
FB
03
05
05
03
06
03
00
FD
F6
FD
F9
FF
F7
0B
FE
FA
FA
02
07
F9
F9
F5
02
01
04
FC
F8
FD
02
F7
02
04
05
F8
0B
FE
01
FF
03
FC
FC
F6
FD
02
09
F6
FB
04
F7
04
03
F7
04
FA
FF
FD
09
08
00
05
F9
02
FF
06
03
FB
04
FE
FA
F7
FD
FF
FF
0B
F7
FD
F5
07
FA
01
F9
F8
01
0C
06
03
02
04
07
F5
06
FE
FB
01
04
07
02
F7
F7
FA
F8
FE
02
04
01
00
00
09
02
FB
F8
FB
05
07
FC
FC
09
07
F9
01
FD
FB
FB
FE
00
04
F8
F7
09
06
02
01
FC
00
FE
03
07
08
03
FB
F8
0A
08
05
FB
07
09
FF
06
02
05
FF
FE
F8
F6
FB
F6
05
F6
01
06
08
08
08
04
F7
FE
06
F8
FB
05
04
07
08
07
08
06
FF
06
F9
01
04
00
FB
02
FE
FA
FE
FF
FC
01
F9
F9
FE
F9
FF
0B
FE
03
F9
FB
07
F7
00
00
FB
00
06
03
FE
03
0B
02
09
05
02
00
FF
FD
FF
03
FB
FB
06
FC
02
FA
03
FF
FB
FE
05
05
FD
01
00
03
FA
F7
F5
FE
08
08
F9
07
04
04
00
01
FC
FC
FF
FC
06
FB
F8
07
03
FD
06
03
03
FE
F6
F9
06
FA
FB
FC
0A
F9
05
06
04
FC
07
F9
F8
07
05
01
F7
FE
09
FE
FA
00
07
FB
04
0C
00
08
FA
02
F8
04
02
00
FC
0A
F8
FB
FA
FD
00
F8
F7
FC
FF
00
09
01
FF
03
FD
FD
04
FE
07
00
FE
F7
06
FE
00
F9
FE
06
00
FE
FE
FC
FE
F9
FC
07
02
FC
06
FC
05
F6
FA
FA
01
F8
FD
05
08
09
04
04
FC
00
FE
06
06
FF
07
05
06
FE
08
FD
07
05
02
FE
01
04
FC
05
FC
FC
06
FE
08
05
02
02
FB
FD
FA
03
FC
FB
02
0B
01
FC
04
FF
F8
FC
04
07
05
08
06
FF
08
06
06
FE
FB
02
06
0B
07
FB
FE
02
02
00
08
09
F8
FD
FE
02
00
04
FF
08
F8
FB
09
03
01
01
04
FB
F9
01
FE
FA
FA
00
02
07
07
F7
F9
FE
FB
05
04
03
02
FF
FF
07
F8
03
FB
03
FF
FB
FE
FD
FC
F6
F5
FB
F6
FB
04
FA
07
F8
F9
07
FE
06
FC
01
09
05
04
FB
F8
F8
04
F9
FB
06
01
0B
FD
06
08
03
FA
F6
05
03
FB
04
06
0E
00
F9
00
F8
FE
05
00
0B
03
00
FD
05
FB
00
F6
05
FC
0A
07
F4
FE
F8
02
FC
09
08
04
01
FB
02
01
FE
F9
08
F7
01
05
F4
03
FC
FD
01
02
FB
06
02
F8
02
FC
06
F9
07
FE
FF
FF
00
FD
FD
07
07
F9
04
01
F8
09
FB
07
FE
07
FF
05
08
FA
FE
06
06
0B
05
04
FF
03
07
FA
FA
FC
FD
0D
FF
FD
00
02
02
F5
F7
08
FC
FB
FB
FA
01
FF
F8
00
FF
07
09
F9
06
FD
F7
05
00
F8
09
04
FC
FD
09
FA
04
00
06
FB
FB
F7
F8
00
08
04
FE
06
07
FA
06
FD
00
F5
F6
01
08
08
01
02
FB
0A
0A
08
FE
01
04
03
FD
FF
05
07
FE
FD
07
FE
05
04
07
FF
04
05
04
04
FD
06
05
03
FD
FD
01
F8
FD
01
FF
F8
01
FB
02
FC
FF
09
FE
F7
F6
FD
F7
08
F9
FF
04
FC
FA
04
04
00
03
03
03
01
0A
FE
06
F8
00
F7
F8
06
FF
04
F7
0C
FC
02
08
FC
09
FD
FC
FF
06
08
FB
07
FE
FC
05
00
09
F6
06
08
05
FB
07
FD
FC
FC
FB
FA
FE
FE
02
08
F9
0A
FA
FA
FF
F9
06
07
FE
F7
FF
FC
04
04
FC
FE
00
FD
FC
01
0B
09
FE
F6
04
05
02
08
02
FF
07
04
06
FE
F7
F7
00
03
04
FB
FB
03
FE
FF
FD
FE
04
FC
08
03
02
05
09
05
00
FE
F9
FA
02
00
FA
00
01
06
FD
02
05
06
FC
FE
02
08
05
FD
FA
03
00
05
F6
04
03
0C
02
01
FC
01
03
FC
04
02
05
FB
F9
FF
F9
FD
F8
02
02
F8
FD
F7
04
02
F7
F9
FB
FE
FD
FC
FD
00
FB
06
06
07
F7
04
03
F6
07
FC
FC
07
F9
07
FC
03
05
01
F9
05
04
04
04
FC
FE
FB
02
F8
F8
04
FC
01
05
F5
03
07
F9
FD
FE
FC
F9
0B
03
09
F7
04
F7
F9
02
FB
06
F8
0B
F7
04
F8
04
FE
06
03
07
03
03
09
FB
03
03
F7
FA
01
09
06
FD
09
FC
06
FC
07
00
FD
FB
FC
03
FD
FF
F6
FA
FE
08
FF
02
F8
0A
F7
06
0A
F9
09
02
F9
01
0B
F9
F8
F8
FC
05
04
FD
00
F7
08
FF
03
06
00
FE
01
09
04
F7
F7
02
0A
03
F7
02
FC
01
04
FF
05
FF
FC
07
FC
05
09
04
FC
0B
FD
F8
FA
03
07
06
F7
03
02
04
02
02
03
04
FD
FF
F6
01
03
F8
03
F9
FC
00
F8
FC
FC
0A
0A
0B
FE
F9
02
01
00
00
FE
05
09
04
F8
04
FB
F8
F8
FB
F8
FA
FE
FE
07
F5
03
04
FE
F7
04
F8
00
FF
09
FD
08
FA
FE
05
07
03
01
F5
01
01
07
03
FB
FA
02
08
FD
02
F7
01
FC
FB
FC
F8
FB
0A
FF
00
FF
09
FE
03
F8
01
FE
FB
FA
07
03
FD
01
07
04
03
FB
F9
F9
FC
FC
F9
FB
06
FF
00
05
FB
07
00
F8
FA
F7
F8
02
FA
07
08
01
08
01
04
05
FC
FD
FD
07
08
03
02
01
FF
00
FE
FF
07
F7
0A
02
FD
07
FB
00
F6
02
FE
FC
FF
FD
F6
06
02
03
06
05
03
FB
FA
04
04
04
01
F6
08
FE
FF
01
07
00
FC
FE
06
09
06
F8
01
06
03
01
05
FB
06
07
04
01
F9
05
F8
07
07
FB
FA
07
FA
04
FA
02
01
05
F8
06
F7
06
05
FF
09
FC
F6
FA
03
07
FD
F9
F7
FC
02
02
F7
04
FE
FF
06
02
03
FE
F7
05
03
00
03
F8
F8
05
F7
FE
FD
09
FB
03
F7
FF
05
05
06
0A
FC
09
07
F7
05
F8
FA
05
08
FA
FC
00
05
04
FB
01
F6
FB
FF
01
03
FB
FD
03
FA
03
02
05
0B
00
FA
FF
F9
FA
01
F6
FF
FB
F9
09
07
FC
FD
05
07
F5
FC
00
0C
FF
F7
F8
01
FC
07
07
07
FC
00
F8
05
F8
F7
08
02
09
04
FF
04
00
01
07
02
03
FA
00
FA
02
08
FE
FC
F8
01
FC
05
FF
02
FB
06
03
07
02
08
07
06
FB
00
03
FA
09
01
08
FA
04
08
07
07
03
F8
01
F7
FD
09
FD
F8
F8
06
00
01
06
FB
F9
FF
00
08
FD
05
07
FB
FE
08
05
09
FA
F9
FB
FB
09
F6
07
0C
08
FD
03
FE
00
02
FC
F9
00
F8
07
FB
01
FD
07
09
02
FF
04
FE
04
07
07
07
0A
F9
02
FB
05
F7
04
06
08
FA
01
0A
F6
F8
05
06
F8
00
02
00
00
00
03
06
FE
07
FA
07
F6
09
04
03
04
FB
05
FA
03
01
FE
01
03
FE
03
F9
06
00
01
04
FC
FB
FD
FC
08
05
FC
F9
FF
FC
FD
08
F9
05
01
F9
F8
F8
F9
FD
03
09
FC
06
FF
F7
FE
07
F7
FD
F8
08
09
03
06
03
03
03
02
03
02
FA
FF
FF
FC
09
06
03
F7
00
FF
09
FE
05
09
08
08
FC
FB
FF
05
08
FE
03
07
FC
05
F9
01
F9
08
F9
07
04
FC
00
00
F7
03
07
F9
05
F9
FB
04
F6
07
08
05
F7
FE
0B
F6
00
F8
F6
F7
F8
02
09
F7
FB
04
F9
FD
FF
02
FD
FB
07
04
FB
FF
04
02
FE
03
07
04
FA
08
F9
09
07
F7
FF
02
FD
FA
FF
F8
FC
FF
F9
FA
03
F7
F7
08
03
FB
FC
03
FD
03
F8
F6
02
FD
08
0A
05
FF
F8
0A
FC
FF
FD
FC
03
F8
06
05
FC
F9
FC
01
01
F7
01
01
F9
03
05
07
01
08
F7
FF
FE
00
04
09
02
FC
03
FF
04
FB
FF
F9
01
FF
04
F9
01
08
FC
F6
02
FA
FB
FA
01
06
F7
FB
F9
00
05
01
0A
FA
F7
F9
06
07
08
FE
0A
08
F8
FC
03
F8
00
FF
F9
08
08
FF
02
FB
F8
04
FE
FE
03
08
07
06
FA
F9
F8
09
05
F8
FC
03
FB
07
03
09
04
01
F7
0A
04
07
05
06
07
07
07
01
08
FC
08
FD
03
FB
F7
04
02
F8
F9
04
FB
0B
06
01
02
07
09
05
FC
06
08
FC
01
F9
06
F9
FD
F6
08
05
06
FD
FB
FA
06
F8
01
03
07
FC
00
08
05
05
04
FD
03
00
04
00
01
FA
05
01
FC
06
08
04
FD
01
FF
FF
02
09
FA
09
08
07
01
F6
03
07
02
02
02
01
06
05
FA
FF
FA
06
04
FD
01
F7
08
00
FD
FA
01
FE
FC
FA
F9
FA
05
04
00
06
F7
FA
FE
04
01
07
FD
07
FC
FE
03
FC
F7
FD
00
07
F9
04
00
05
01
FE
FB
FA
F6
01
07
FA
FE
F9
03
FA
00
FC
02
00
09
FA
F9
FC
FC
F8
09
FB
07
05
FC
08
07
F9
03
07
F9
04
F7
FB
FC
F8
FF
02
F9
07
FE
FE
FD
00
08
FE
FF
FF
F8
03
05
06
F8
05
FE
08
04
FE
F7
F7
F8
FF
07
08
05
03
FF
FD
04
03
08
04
FB
F9
02
09
08
F7
FC
F7
09
F9
00
FE
09
08
0A
F9
09
F9
09
F8
04
03
09
FF
FD
FC
FF
02
FF
02
FE
00
F8
06
FF
F8
09
FB
FE
FD
03
03
09
FA
FB
FE
04
FD
02
F7
FB
08
FD
07
04
0A
F7
F9
FE
F9
F9
02
F7
FA
00
F8
01
FD
F8
FC
00
FB
F6
00
09
09
F7
F9
03
F7
03
FD
01
03
FC
F7
F7
06
FE
09
F8
03
FC
FA
FA
FD
00
03
FA
03
00
08
03
FF
07
F8
00
04
03
00
FE
06
0B
FE
01
FC
04
FE
0A
FD
FF
06
FC
07
FE
08
FA
F7
03
07
01
03
FF
FA
04
FE
00
06
03
F9
02
06
05
07
F8
FC
04
03
F8
FA
05
F6
F8
07
F8
00
FC
06
01
02
F8
FE
FE
F7
FF
FE
FF
F6
FD
00
04
06
04
02
F7
FB
06
04
FD
02
07
07
03
F9
FC
F8
05
FD
06
F7
FC
FE
02
04
01
FE
07
FB
F9
03
FF
FB
08
08
FE
F7
F9
02
02
FD
01
03
01
FF
05
07
FA
F8
06
01
01
FE
FC
F8
FD
02
FC
06
F6
08
F7
FD
08
FF
06
06
F8
FB
04
FD
FF
03
0A
05
F6
01
09
F7
01
05
08
01
0B
FF
F6
FF
FD
FB
FC
02
07
F9
FB
FF
F9
07
FB
F7
02
F8
02
FA
04
00
01
FA
FD
F9
00
04
FE
09
FC
01
05
04
03
00
08
09
FF
09
FC
07
01
07
F7
08
FA
05
01
05
FA
FC
F7
03
03
00
F9
FB
0A
F8
04
FD
01
09
09
FB
FC
F8
FA
00
08
FB
04
00
05
FD
FB
08
00
05
FA
06
FE
06
FC
F8
F7
01
F8
FB
06
00
00
F5
F7
01
08
FE
07
FD
FA
FB
00
F7
04
F5
FC
F6
04
FD
FD
05
08
08
F9
FC
FA
07
0A
FC
FA
FE
05
FB
05
FD
02
F9
02
01
FF
F8
09
FD
FB
08
06
F7
FA
F9
00
04
08
FC
FC
FD
01
05
F8
FC
08
F9
02
FE
00
F8
01
F9
00
FD
FE
02
F7
FF
04
03
05
F8
F8
FA
03
07
02
FD
06
08
09
FC
FF
05
FD
FC
F8
FC
08
FE
FA
04
FC
03
FC
FC
08
FB
FE
06
FB
F7
F5
01
06
FC
FC
F8
FB
02
02
FE
F6
00
06
FE
03
05
08
09
F9
02
02
08
00
FE
F9
05
FE
01
00
F7
FF
F7
F8
F8
F7
FA
FE
FA
F8
05
FB
04
06
00
01
05
03
07
F9
F8
06
04
02
07
F6
FA
06
06
02
FC
F5
01
FE
F7
FF
00
03
05
03
09
00
F6
06
F9
FE
FC
07
02
06
F9
FF
F5
07
F9
FA
06
0A
F6
FD
F8
02
F9
FC
02
FE
07
06
F9
02
08
04
F7
FB
FF
FB
FC
F7
FD
07
03
FB
FF
F6
FD
00
FB
01
04
05
FE
FF
FF
F9
02
06
07
05
F8
F7
F6
03
FC
08
00
05
09
04
FD
05
04
07
FF
05
05
09
08
02
02
01
01
FA
02
F7
02
09
02
04
00
F9
08
F9
06
07
FD
F9
01
07
0A
09
07
F9
02
F7
01
05
04
05
07
04
FF
FE
FF
FC
06
06
0C
FB
02
F5
F9
FE
F8
F9
05
09
FE
0B
00
02
00
F6
01
07
07
03
F7
F8
FF
04
F8
F8
F7
FD
FC
06
FB
FA
F7
F7
FB
04
02
04
07
FE
F8
F7
04
FF
06
FA
F9
02
01
FA
FA
05
F8
01
0A
09
0B
07
07
07
02
00
03
03
FD
07
03
02
04
08
FD
06
F7
FA
F6
06
05
03
00
FA
01
F5
02
09
04
02
FC
FC
07
08
02
04
05
F7
FB
FB
FC
00
00
0A
02
09
06
F9
F7
FD
FB
0A
00
05
05
FF
07
00
FF
00
F7
08
02
FD
FC
FF
FA
01
04
01
FB
09
04
00
FD
FE
F6
FC
06
06
02
F7
03
F8
FF
F9
05
07
FD
05
F9
FC
FF
FA
01
06
01
06
FB
07
F7
02
03
FF
F9
07
F8
03
05
F9
F7
FE
06
FE
09
07
07
06
FC
01
FB
01
01
F8
F8
06
FB
F7
F9
FF
07
FE
FF
FE
FA
0A
04
03
03
FB
03
F9
08
FB
02
01
FD
F8
07
06
03
08
08
FD
FE
02
FC
F8
F9
F8
FD
FA
FE
08
01
03
F9
00
FD
0B
07
FC
FB
01
FE
F7
03
02
00
01
F9
FD
FA
FD
00
FE
F6
F7
FB
01
FC
07
08
FF
05
08
03
FC
04
04
FA
FB
F8
F6
08
02
FF
00
FA
09
05
0A
F8
FD
F8
F8
06
FC
00
F8
F8
F6
F6
01
06
03
08
00
06
04
FC
FB
07
00
FD
F8
FD
F9
01
00
04
06
F9
00
F8
FD
00
09
FC
F9
01
0B
FC
08
08
F8
07
FB
08
06
01
FC
08
06
FF
F8
FB
00
FD
04
FE
F8
F7
FA
02
FB
05
02
0C
08
05
F7
FD
FE
06
FC
FE
09
03
FC
FD
F8
FE
03
05
05
03
05
05
01
04
F9
FF
07
F7
03
FB
08
09
F7
FE
06
00
FA
01
00
00
FC
F9
07
FE
FC
F7
02
FB
02
02
FA
04
FB
08
08
05
08
02
FB
07
06
09
02
07
04
05
FD
FC
FE
09
05
FC
FA
F9
FF
FB
01
FF
F8
F9
FC
06
FD
05
FD
05
07
08
02
FC
03
F9
FF
03
02
FF
02
FA
08
FB
02
00
FB
00
06
F9
06
FD
08
0A
08
08
00
F9
0A
FA
FF
F8
01
09
FC
FB
00
05
FE
FB
F7
02
00
02
02
FB
01
06
02
F8
04
04
FC
06
FE
FC
03
07
03
01
05
09
08
07
06
FD
04
09
04
01
03
FE
09
F9
03
FF
F9
03
00
F9
F7
01
02
F7
FF
F7
F7
FE
03
F8
09
01
0A
02
06
06
F8
FF
FE
FB
FE
04
FE
04
0A
F8
02
07
05
FC
01
06
06
00
02
09
01
F7
F7
00
02
01
FF
04
FE
F6
05
F9
FC
06
00
05
09
09
FE
FB
FB
FC
FE
FF
FF
FE
02
FE
FF
FC
02
FA
04
F9
03
00
00
FD
04
04
05
FA
F7
FC
00
FE
FE
06
F6
07
F8
02
03
FC
FB
FC
07
FE
FC
03
FB
05
F7
F6
00
FE
FE
03
08
03
01
FD
07
FB
FA
F9
00
02
01
01
00
F7
03
FE
FE
05
04
F7
FD
09
FC
F8
00
FF
00
F8
07
05
02
FA
05
F9
FC
F8
F9
FF
00
FF
08
02
FA
00
FC
F9
FB
FE
00
FB
FB
07
09
08
04
F8
F8
FC
09
FF
FE
04
00
03
08
FA
03
FC
FD
FD
03
FB
07
FF
FA
FF
00
FB
FA
00
F8
03
07
F8
03
FB
F7
05
04
F9
FC
03
06
0A
F8
F9
09
0C
06
FF
03
04
FB
03
F7
01
FD
09
09
FD
FB
FC
F9
01
F9
01
03
FB
F9
01
06
F8
F7
01
FA
FC
FC
F7
FB
FD
FE
FC
02
00
FB
04
FB
09
FE
07
FD
03
FD
FB
00
FE
FE
FF
FA
03
F8
FC
04
06
0B
F7
05
FB
09
FB
02
FA
08
FC
04
08
FD
08
0A
FC
08
FE
FD
F7
FE
FD
00
03
03
F7
01
02
04
01
08
FE
03
08
04
08
09
04
07
09
05
FE
07
FF
06
01
08
02
06
FD
F8
F9
01
01
FA
09
FD
F8
02
F9
FE
FC
01
06
09
07
04
FD
07
08
FB
03
F8
FF
FD
FB
FE
04
01
FD
05
02
02
FA
07
02
04
F8
06
02
02
00
04
05
F9
05
03
04
FC
05
00
FF
00
02
03
04
F8
FF
03
FB
FA
00
FA
F7
00
FF
0A
07
F7
FB
F7
FF
05
FB
FB
FD
FB
FA
FD
FB
FE
07
06
FD
06
F8
08
02
F8
0C
F9
FF
FB
F6
02
FC
F9
08
04
F9
FA
FB
00
05
F7
FE
03
02
01
0A
FA
02
FF
FD
09
01
03
09
02
02
FD
00
FF
01
FE
09
00
F9
FF
00
FF
06
06
FE
05
09
00
F8
09
FA
00
09
FF
FC
04
FC
07
00
FA
00
0A
06
00
03
F8
F8
FD
FA
FB
01
06
FC
FF
FB
05
04
01
09
04
03
FC
07
03
06
FD
07
F6
FE
F9
FE
07
FC
02
FD
04
05
09
F9
F8
F7
08
FE
FD
05
0A
FC
06
FB
05
04
02
02
01
FB
FE
FA
01
08
04
FB
08
FE
FD
F7
0A
FD
01
0B
F9
F8
FD
FC
F8
F9
04
FA
F8
FB
08
05
FC
FA
02
00
FF
FD
07
06
02
01
01
07
FC
06
04
FF
F8
05
FF
FE
FE
08
01
09
FD
FA
FA
02
03
08
05
F7
08
FF
03
FC
FC
FC
F8
FF
0A
06
F9
FA
06
F7
04
FD
FD
F8
F6
FB
FF
05
FD
FE
FE
FA
FC
06
04
F8
FB
F8
FD
04
08
F7
06
02
FD
00
FA
F6
F9
05
04
00
FE
FC
09
F8
FB
F8
FC
FB
08
08
04
06
00
FD
05
F9
FA
01
FC
F9
07
FF
FF
FC
00
FC
0C
F9
07
F7
00
FB
04
09
FE
FB
05
FC
02
F9
00
FE
FB
06
00
08
00
03
FC
03
09
F6
06
FB
F7
F8
FE
07
04
FC
04
FD
FF
09
03
FE
02
F9
07
09
08
03
01
04
F8
04
F8
02
03
03
02
01
FB
00
04
07
07
09
FE
02
FD
FD
04
0C
FE
03
F8
FF
06
FE
FD
FB
03
02
00
FC
FE
06
09
07
01
F8
06
00
03
0A
FD
07
FD
FD
FC
FA
04
08
FF
07
03
07
F8
F8
F9
F7
FF
09
FB
FB
FF
FC
FD
F7
F9
00
F8
08
F8
FB
04
FF
FE
06
F9
F8
03
07
FC
FD
03
06
04
FD
0B
02
F8
FE
04
02
FD
F8
FD
FC
01
05
FB
07
F9
07
F9
FF
FE
06
FD
F8
02
02
FB
F6
04
04
F9
FD
02
04
07
07
05
FE
FD
FE
FC
07
06
F8
FB
06
04
03
FD
FA
FF
07
04
FB
09
FD
FA
FA
07
07
FE
F9
FD
FE
F7
FC
06
08
F6
FC
FE
00
08
FC
FD
FF
FF
00
F7
FF
FA
06
02
FE
01
06
F7
00
FC
FE
08
F9
FE
02
06
F9
04
05
00
08
F8
06
07
02
FF
FB
FB
08
09
00
08
FA
FD
FA
FB
03
FC
FE
03
F7
FE
FD
06
08
06
03
05
F6
FB
05
07
FD
07
06
FC
05
06
FF
04
F7
FE
01
FC
04
FE
06
02
FA
FC
FE
F9
FC
04
08
F9
F8
F5
F9
03
FC
05
05
01
F8
FB
FE
09
FE
FC
07
FE
FA
04
02
09
05
FB
FA
FC
F7
FD
F8
F8
02
F9
03
09
FE
FE
FF
FC
06
F7
F6
07
0A
FC
FF
08
08
FD
09
01
04
FA
0C
F8
05
06
F7
05
06
FD
02
06
F9
F6
0A
F9
F5
FE
08
F9
00
00
00
01
F8
03
03
00
FE
05
03
06
08
FA
FD
09
FE
F9
F7
04
01
05
00
FC
08
F9
07
FE
F8
0A
05
02
03
03
FE
F9
FB
06
08
07
0D
FE
FB
03
FD
FB
F6
09
04
FE
FB
09
FA
08
00
F6
FD
FA
FC
02
02
01
FC
FC
05
03
FA
08
FC
FE
05
FB
04
04
F7
F8
00
FF
02
06
05
FA
00
FB
FC
FC
F8
FF
03
FE
FD
05
02
06
F9
F7
09
F8
04
00
0D
03
09
FF
04
FA
FB
F8
F9
F7
04
F7
FB
FB
00
05
00
05
0B
05
07
FF
FA
08
05
F8
08
09
FE
FB
04
06
05
FA
F9
FD
FF
03
03
FC
F8
F8
F9
02
08
F7
05
FF
02
FD
FD
0A
F8
FC
FB
F9
FD
FF
04
FD
FA
FD
FB
07
01
06
05
FC
08
01
FE
02
FF
FA
05
F8
05
FF
01
03
FD
F8
FF
02
00
05
F9
0A
F9
FE
07
06
F7
01
F7
05
02
06
00
07
F9
F8
05
06
01
F7
01
06
F7
FF
01
04
05
08
FB
00
FC
F6
01
09
FC
FF
FC
02
05
03
08
05
01
F7
01
05
F9
F8
04
09
04
F6
FD
FC
07
FD
01
09
07
07
FC
F8
04
04
0B
09
03
FC
06
F7
FE
FD
F9
FE
FF
F6
02
FC
07
FA
0C
08
FE
04
01
08
FB
08
05
FE
07
06
FC
01
00
00
FC
06
02
02
05
05
07
FC
08
F9
08
03
06
FC
09
0C
FC
00
FD
FA
04
08
F7
FD
07
09
09
08
FF
04
FD
07
FA
FA
FF
FC
00
09
FD
00
07
F7
FA
06
00
F8
06
07
FA
03
F8
09
01
05
04
02
F7
00
01
00
FE
00
F9
FF
08
06
03
02
00
08
05
04
FB
08
05
08
02
01
00
09
FB
F9
00
03
FA
08
09
FF
F7
FD
FB
03
09
FB
FA
02
FE
FD
FF
FB
FB
0A
FD
FB
F8
FB
FA
05
F7
F7
FB
08
FF
01
07
FC
00
F6
02
FF
08
07
07
FC
0A
08
05
FD
F8
FB
F9
05
FC
F8
FA
FB
FD
09
08
F6
F9
03
FD
03
FE
03
F8
FA
05
04
06
02
F7
05
FC
F7
03
00
04
00
09
02
F9
F6
F9
F7
F9
FD
04
04
07
02
07
F8
FB
FA
F7
07
F8
FF
FC
FA
FE
03
03
F7
FF
F9
09
01
FB
07
FD
0A
FE
07
06
03
0A
04
07
07
FA
04
05
07
00
F7
01
FE
06
03
00
FA
F7
FC
05
FB
FD
F9
02
FF
F8
01
0A
F7
FC
05
FE
FF
09
FD
FA
F9
04
05
F8
06
FB
FF
04
05
FA
FC
04
07
FA
04
00
FC
F7
05
FE
FB
FC
FA
F8
FB
05
00
FC
FB
FA
F7
FE
F9
02
02
07
FA
0C
0C
04
FB
00
00
FE
0A
FE
07
00
06
FC
FA
06
FF
03
06
09
05
FA
F7
04
FF
F8
FD
05
02
08
FE
FA
F8
07
08
FB
07
FD
06
05
FE
03
08
08
FD
F8
02
FB
03
03
04
F7
FE
06
FA
04
FD
FB
05
05
00
02
FE
01
05
00
02
F7
FF
01
08
07
FE
FA
F6
F9
FB
00
03
FD
02
06
02
02
FC
FB
00
FC
03
FC
F7
05
FC
07
FF
05
FA
FB
07
06
FE
07
00
FE
08
FD
FE
08
F7
F9
05
FE
FD
FC
F9
01
FA
FD
05
08
FD
FC
FC
FB
FE
F8
04
F9
FC
0B
06
F9
06
F8
FF
03
F9
04
02
FD
01
07
FC
F9
03
FA
FE
00
FA
FA
F9
FE
F9
FC
FB
01
06
FD
F9
FD
FB
08
06
FA
0A
00
07
FF
01
08
08
06
F7
00
FD
FD
00
03
FC
FC
FC
03
06
00
FA
0A
F9
FC
FB
0D
FF
FF
03
FD
0A
08
01
FD
01
06
01
F6
FF
F6
FD
F9
FB
09
06
FA
07
01
01
F5
06
FD
08
09
F7
FA
FA
01
03
FC
FF
F7
01
FF
0D
04
FB
FC
05
F7
FA
FE
01
F9
07
01
FE
05
05
07
08
05
FB
04
00
FF
F6
F9
FB
F7
01
F7
07
FC
01
08
01
FA
FF
FE
07
08
01
09
07
FD
06
F7
F6
FF
01
04
04
F9
FD
F7
08
06
00
FC
05
07
FD
F7
FA
07
F9
FB
FB
03
FD
00
FA
01
FF
06
02
FC
F9
FE
04
F9
F7
00
01
FC
F9
05
02
01
02
00
06
00
F8
FE
08
05
FF
FA
FC
FE
05
0C
FD
FE
08
03
FA
07
02
06
FB
04
FB
0A
FE
FA
09
04
02
04
F9
00
01
02
01
03
F8
00
01
0A
0B
06
06
06
F6
09
04
FD
03
01
02
FC
0A
06
06
07
02
02
FB
07
FE
FB
FA
08
08
08
FB
02
04
05
06
F8
03
09
F7
01
F7
09
03
00
F8
FD
F9
F8
04
03
F9
F7
F9
04
06
F9
05
07
06
FB
05
08
0A
09
04
F9
02
03
F8
01
05
01
06
FF
FC
FF
08
03
03
0A
FE
F8
07
FA
0A
FE
F7
06
06
06
FF
FB
F7
0B
00
FD
F8
FE
08
06
F7
FE
04
FD
07
03
FD
08
FC
09
03
00
F9
F8
08
01
01
07
FB
04
03
02
06
01
F7
F8
07
01
01
F7
FD
08
FA
FD
08
FC
07
F7
F6
06
F7
02
F7
FB
FA
04
FC
07
F9
05
FA
05
05
00
FD
00
08
04
FB
02
02
04
03
06
06
01
06
04
F8
0A
FB
FF
FF
07
FF
04
F7
01
04
FA
FE
07
01
08
01
01
05
03
FE
F8
06
08
08
F8
FF
F8
FF
05
02
FB
00
FA
FE
04
03
FB
01
FF
09
FF
01
FB
FA
F8
03
02
09
06
FC
F9
07
0B
FF
FF
FF
F9
08
06
FB
04
FD
0B
04
FE
F9
01
07
FF
09
05
FA
F6
FA
FE
01
04
02
02
FD
01
01
00
05
FA
FE
06
06
00
09
0A
FD
02
FA
06
08
FA
02
FA
FC
FB
04
FE
02
08
08
03
0A
03
FF
F9
00
FE
01
FD
FD
06
F7
F6
FB
FF
0B
07
06
09
F8
07
F7
05
F7
05
00
F7
04
F7
FF
02
05
FD
05
00
01
FE
FE
FE
02
FC
FF
02
FE
00
01
04
00
05
FA
03
FC
08
FB
00
FC
F9
FD
03
03
FE
03
FF
F6
08
FA
00
03
F9
02
07
FE
01
00
06
08
09
09
F9
FC
00
FE
0A
08
00
FD
F8
F6
FE
FA
05
01
02
FF
FB
F7
F8
FB
FC
FB
04
03
FD
00
FD
FF
04
05
F8
F7
03
F9
0B
0C
07
FA
FD
F7
FE
08
06
00
F9
FE
07
0C
FC
04
FB
06
FB
07
02
00
FB
02
FE
01
06
FD
01
FB
09
07
FB
04
FE
FE
06
07
FE
FE
FA
03
01
F9
00
08
01
03
00
FB
01
05
01
01
FA
F8
FF
00
F8
F8
F6
08
03
08
F7
FB
FF
FF
F9
01
FE
02
F8
09
04
FD
F7
F9
FD
00
FE
F8
05
FB
FF
FB
07
09
FC
03
05
01
FE
FB
FE
FB
FA
09
08
08
02
03
FB
05
09
F6
07
01
0B
00
FE
06
0A
FE
00
05
F9
04
03
03
F9
F8
07
04
F9
09
03
FB
03
02
FD
04
02
FD
FF
09
01
F9
FD
FC
FB
0B
04
08
FF
09
02
0B
05
F9
03
F9
07
FC
FD
05
03
FA
08
0A
00
05
F7
FC
06
FF
F7
04
07
FE
04
FF
07
00
05
04
F7
00
FE
07
FD
00
07
03
00
06
F9
FD
FF
02
F8
09
08
05
05
03
FB
05
04
FC
FA
05
F8
05
05
07
04
00
01
F7
FC
F8
FC
F8
FD
FE
01
04
FC
00
FE
FD
09
07
F8
03
08
FF
04
FE
FA
07
FC
00
04
01
03
FD
F7
F9
FB
F6
01
FB
FB
05
FE
FF
08
FF
F8
FE
F7
03
F8
05
00
FD
FA
05
FE
01
07
FD
07
05
00
F7
F8
05
FF
09
03
01
07
08
08
F5
FD
F9
F9
FB
F7
04
FF
F9
08
F7
FF
FE
09
FF
F6
05
04
F9
FC
06
09
06
FE
FA
04
F9
F9
FA
08
0A
04
0A
FA
F7
02
FA
F7
08
FE
FA
04
07
00
FF
F6
06
F9
06
05
FF
08
03
FB
06
08
04
FE
FE
06
08
09
04
01
F7
09
FC
09
06
F9
FA
01
F9
09
FE
F6
08
F6
F7
08
07
01
09
03
F9
07
03
FB
04
01
FC
03
FF
F8
FF
F7
05
00
05
04
F8
FC
09
07
06
F7
F8
04
FC
F9
F7
FA
F7
FD
06
FA
04
06
08
FF
F9
FA
FE
09
03
FF
FB
FA
03
08
FA
08
FB
09
FA
00
06
0B
FD
FA
FE
06
F6
07
05
04
04
02
02
FE
FA
F9
06
08
04
FE
04
F7
06
09
F7
FE
01
01
01
05
F8
00
08
F9
FB
06
F9
00
FC
04
F7
FA
FC
F8
08
01
04
FD
F8
07
F7
01
FB
F9
09
06
FD
FA
00
09
F6
0B
07
F6
FA
06
FE
08
07
03
F8
06
FE
00
00
00
02
F9
00
07
FF
09
FF
00
F7
06
01
08
04
F8
FA
F7
FD
FE
FD
FB
02
00
FD
01
06
FF
06
07
05
05
FA
F9
FF
F9
FF
FC
07
00
04
FF
FC
F9
0A
F9
05
FA
02
FE
01
01
00
FF
00
FB
FC
07
F8
05
04
08
FE
F7
02
F8
07
FE
F8
FF
FE
F7
02
FE
08
F8
00
00
FF
FF
01
06
08
07
FB
FE
F9
FD
05
06
07
F6
00
07
01
FB
06
00
F8
FB
F8
00
05
06
07
03
FE
F7
07
FF
F8
02
08
01
09
0A
07
F8
FD
07
F6
02
04
F9
FC
FA
09
FD
F6
FD
04
F8
05
07
FE
F9
F7
FC
00
07
09
08
00
FA
FF
FC
08
FE
00
03
FD
FF
FF
01
03
03
09
09
08
FD
F8
FF
05
09
FD
09
FF
F6
FF
00
FB
01
FA
FA
08
F6
FA
FF
FB
FD
08
00
F9
01
0A
FF
FF
FD
09
F9
FF
FE
F7
F7
FF
F7
02
FA
01
FD
FE
F8
01
04
01
02
06
FC
F7
04
05
02
08
FC
09
06
03
08
05
06
FD
04
03
FE
06
04
FA
03
03
08
F8
FC
FA
04
02
06
FE
FA
F8
FE
08
FD
02
FE
F7
FE
FF
FA
FC
F9
F7
FE
00
0A
FE
02
01
02
FE
FB
FC
FF
FB
07
FB
01
F7
F7
05
05
FA
02
FE
FF
FC
04
08
08
00
FB
F9
FE
F9
05
FF
09
02
F8
FD
09
F7
F7
F7
FF
FE
FF
03
FB
FA
FC
FB
FF
F8
FD
FC
FB
00
06
FE
FB
FB
00
03
00
FF
FB
FF
FF
00
08
06
03
07
FC
FC
FF
02
F6
FC
F9
03
F9
FE
FB
FB
08
03
01
FF
09
05
FD
07
FC
00
08
00
FF
F8
FB
00
02
04
FE
F7
00
08
FD
09
01
08
07
08
00
F7
FF
06
02
01
0A
F7
00
07
02
FA
FF
04
03
FB
FE
FC
FB
08
F9
03
FE
FA
06
05
05
F7
04
FA
FF
FF
03
00
FC
08
FB
06
FE
07
03
F9
07
07
05
05
FC
00
00
09
08
06
01
07
FD
FE
F6
FD
08
FC
F8
02
01
FF
09
01
FC
F9
01
04
FE
02
FC
FC
FA
08
0A
FF
08
FD
06
09
07
07
0A
02
F9
0A
09
04
02
06
03
07
FB
FF
02
02
06
F9
00
05
06
03
00
02
FD
05
01
05
FE
FB
FC
FC
09
05
07
06
0A
06
09
06
06
FE
08
FD
FE
02
06
02
FC
FB
F9
F9
07
FE
FB
FA
FB
F9
03
03
02
07
07
01
FD
FB
09
FB
FE
04
F8
01
08
F8
06
04
F8
02
07
FA
04
FE
F9
07
F6
F7
03
FC
00
01
04
07
08
FF
F7
F6
07
FA
04
F7
07
F7
FE
FE
05
FC
F9
F7
08
03
FA
FC
FD
05
FE
05
05
FC
FB
04
FD
09
0A
07
01
F9
08
07
FB
F9
FE
FE
01
FC
F7
07
FC
00
F6
04
F9
00
FE
07
02
FC
F7
FD
FA
FB
FD
09
F8
FF
05
FE
FA
FB
F8
03
F9
02
F9
FA
01
F7
F8
06
03
09
01
05
FC
F9
08
01
FC
FC
02
09
FF
04
0A
FD
FB
08
FE
FD
02
07
FE
FE
03
F9
F7
F7
FB
F9
01
FC
FD
01
04
06
05
09
00
F8
F9
F7
F7
FB
F7
FC
09
F9
F7
FC
FF
FD
01
FE
FC
FC
FF
FD
FE
03
02
03
03
04
F9
FF
0A
FB
F8
F9
F6
07
08
03
00
FE
FC
04
06
FB
07
FF
FE
07
FB
FE
09
05
07
01
08
03
F9
F8
FE
05
02
05
FC
00
04
F9
00
FC
02
F9
F8
FF
04
06
F6
05
F7
F9
09
FA
05
09
F8
FF
06
F7
F9
FA
02
06
F9
F9
08
F7
FF
FC
09
06
06
F9
F8
06
05
02
F7
FF
FA
FD
F9
02
F7
07
09
02
00
FA
04
06
06
02
06
04
F8
09
03
FB
F7
FC
FC
FC
04
03
08
00
08
07
FC
FF
08
06
01
01
02
F7
06
04
FE
FA
FC
02
00
04
01
FA
F6
05
FB
02
02
01
FC
FE
F8
00
04
03
FB
08
04
03
00
F5
03
F9
0A
03
03
F9
05
09
FC
02
03
02
FC
FB
08
FB
02
05
08
FB
F9
F9
07
FB
01
F8
FD
05
F8
F6
01
03
06
01
08
FA
FE
FD
FD
F9
09
08
02
07
FD
FA
00
FF
F8
03
FF
04
F8
05
F7
FE
09
FA
09
FB
FB
0A
02
01
F7
03
00
05
00
FE
09
07
FD
FB
F6
FC
06
F6
FF
FC
FF
03
FD
F8
0A
07
00
02
09
FA
FC
FB
01
01
FB
F7
06
09
F7
05
09
0C
06
00
03
01
08
07
FF
F8
F7
00
F9
08
F9
FD
F9
FE
03
0A
FA
0A
F8
01
FA
FF
FD
06
02
FD
04
F9
FE
FE
08
F8
FA
04
FD
F9
FD
04
FD
F7
FB
01
FE
F7
09
03
08
FB
02
05
FA
06
01
FD
F8
04
03
FB
03
FC
00
09
02
06
01
01
FD
FA
06
02
F9
FE
FD
F9
FB
FF
F8
0A
FC
F7
01
FE
0B
FF
00
09
FF
01
04
F9
FF
02
05
F8
FE
02
FD
FD
03
04
FE
FD
04
04
08
FF
FD
06
00
01
FE
F6
03
F7
04
08
09
FD
06
03
FB
FA
FE
0A
0C
FF
02
FD
09
FD
04
F7
FE
02
FB
09
08
00
05
04
F7
08
FB
07
FF
07
F8
FB
00
03
01
00
06
FE
0B
06
F8
FF
F8
FD
FC
03
F9
08
FA
F9
04
01
06
04
06
FB
05
08
01
F5
02
FA
F9
08
FE
00
FD
06
05
FD
FC
F7
FA
F8
03
F8
F7
05
FE
04
06
09
02
FA
FF
F7
07
05
FE
F8
09
F8
00
06
0D
08
05
07
0A
FA
00
FD
F7
04
F9
03
0B
05
0C
F8
06
04
FF
FF
FE
09
FE
F9
0A
FA
FD
09
F6
00
FD
FF
FF
FE
02
F7
04
FE
FF
FD
09
01
FC
FD
F9
FD
FE
FD
04
FD
02
FD
F7
08
01
0A
00
02
F9
FD
00
FF
03
FC
FE
00
FB
03
F8
01
FB
FB
05
03
F9
FD
F7
FE
00
FB
FF
05
FC
0B
FC
05
05
03
FD
FA
00
05
02
05
00
F9
FC
06
02
06
FF
06
00
F9
FB
06
FB
07
FD
F8
FD
03
02
00
FC
02
06
FD
FC
00
04
FF
05
F9
06
FD
09
04
0B
FF
F7
FC
FA
FB
FF
FF
09
FE
00
08
0B
02
FA
FE
F7
05
FC
FC
02
00
F9
09
F8
F9
FC
03
F9
FA
F9
03
FC
04
04
FB
00
02
F8
05
FD
FF
06
03
FA
08
02
FA
06
02
04
01
FE
00
06
03
F9
F8
FC
F9
07
07
00
01
FA
08
FA
0A
02
FA
02
04
06
F8
FC
05
06
06
04
01
FB
FF
05
00
02
04
03
03
04
F8
FB
FF
08
FC
00
01
03
F9
F7
05
F7
07
FF
FC
07
F7
F8
F9
F9
06
F6
00
03
F8
00
FD
FD
03
02
FF
0A
F8
01
FA
08
F7
04
F8
04
09
00
07
0B
FF
07
FB
02
02
FF
08
0A
02
03
F9
06
FF
07
00
FF
FA
F9
00
02
FF
07
09
08
FF
FC
03
02
03
FE
F7
07
07
FC
05
FC
F9
FE
01
FD
FD
08
03
07
F9
FE
FC
F9
05
08
FD
01
02
05
FE
04
08
01
07
02
F9
03
02
FF
FC
05
FA
02
04
08
F6
FF
FB
FE
F8
FB
03
FB
06
07
FF
07
FE
02
FE
F9
03
F6
F8
F7
03
FA
04
04
04
08
03
FA
08
F7
01
02
F9
00
09
F7
01
06
FF
09
FF
FC
00
FE
F6
03
FF
00
FA
FF
FA
05
01
02
07
FC
08
00
04
F6
00
09
00
FE
FF
06
06
02
00
F6
F6
03
FD
03
08
FE
FB
04
FB
FB
00
05
FC
F9
05
04
01
FA
FB
F7
00
09
02
F9
0A
FC
06
FB
FB
F9
F6
FA
F8
00
00
09
F8
05
FF
06
03
FC
FF
02
05
FE
FC
F5
07
01
08
FF
05
FF
FE
FB
03
06
02
06
01
00
03
09
08
03
0B
F6
08
01
05
F7
F7
FB
FE
03
F6
01
02
FB
F8
F7
09
FE
06
F7
F9
06
FD
07
FD
F7
F7
FF
FC
02
03
F7
F9
F6
F6
FB
04
07
FB
07
FE
07
07
FD
06
FF
F7
02
05
0B
05
06
03
F8
FD
FC
04
08
F8
04
FF
FF
00
06
FF
03
FA
08
00
F7
FE
FE
05
FB
F5
06
01
08
03
09
02
FA
05
02
F7
01
F9
08
04
FF
00
07
FB
FD
06
FD
09
02
F7
FE
0C
04
03
03
FF
FE
FC
FE
00
FC
05
FB
FF
F8
06
03
FE
00
03
08
FB
07
F7
08
FE
F8
05
03
01
FE
07
F7
FD
FF
FC
F7
FA
01
02
01
05
02
05
03
F8
00
FF
F8
F9
02
F7
00
06
FA
03
FA
03
06
FB
04
09
F9
09
09
F8
01
01
F9
06
07
05
FD
FE
09
04
FE
02
09
04
F8
01
F7
0A
07
FE
09
FC
08
02
04
FF
FB
F7
FC
02
04
01
F9
F7
FD
02
FE
FA
FF
06
02
08
04
06
01
F9
07
FD
FA
F9
06
01
07
01
F8
FA
FB
F8
F9
08
FB
02
0A
04
05
F6
02
FB
F9
01
FA
FA
07
03
FF
FE
F7
02
F7
F9
FA
03
09
FE
08
FF
FA
02
FC
09
0A
0B
F9
FD
F9
00
03
03
FB
06
05
FC
F7
00
06
00
04
02
01
FA
FA
06
F8
04
06
F9
FE
FD
FB
05
04
FA
FE
08
03
02
FC
FB
FE
09
FB
FC
FD
06
FD
05
FC
FF
09
01
FC
F8
05
01
FF
02
09
03
05
04
FA
FB
FE
F7
FB
FC
04
FD
01
FB
F9
07
F8
05
03
00
08
02
02
FD
04
FE
FA
06
F9
FD
FD
FE
0B
FC
F6
03
FC
03
FD
FD
F9
FA
FB
06
05
08
FE
06
F7
F9
05
0B
02
FE
F8
F6
07
F8
FD
02
FA
0B
06
01
02
F6
01
FD
FC
FC
FC
F8
06
05
05
01
FE
07
FA
FF
FE
01
F8
F9
F9
FA
03
F7
F8
04
06
03
FF
FE
FA
FE
03
04
04
FC
08
FE
06
04
FB
01
06
FF
FC
06
FC
00
02
03
FF
F7
04
03
00
FE
FC
FE
0B
F8
00
08
09
FE
FB
FB
09
F5
FB
00
FC
FE
FD
FB
01
FD
0A
07
FF
FB
00
FC
06
F9
F8
00
F8
07
04
FD
FD
03
05
FB
F8
FF
01
01
09
FF
05
06
05
FD
FC
06
FC
00
03
FB
03
FA
05
FB
03
09
FA
03
F8
FC
FB
FB
FF
02
F7
03
F8
06
03
06
FC
01
F7
FA
05
02
F8
FA
01
02
F5
05
01
00
02
FB
04
F8
09
03
F9
07
F8
06
04
04
FE
05
07
F7
07
FB
FD
F9
FA
FA
FD
FE
FB
FF
01
05
F6
04
FF
09
03
FB
01
FB
FF
00
04
01
FF
08
0A
FA
F9
0B
FE
04
07
FD
FE
FA
01
07
FC
F7
FE
09
02
00
04
08
FF
FC
05
FD
05
FC
06
FE
01
03
09
FD
03
F6
07
02
03
04
05
08
04
00
04
F9
04
F5
00
04
00
FA
09
0C
FB
FD
FB
FD
00
05
FE
09
FC
FE
09
0B
01
04
02
FB
0A
03
FC
FD
FC
07
01
F9
09
00
F9
03
FD
FA
05
05
07
FB
FC
03
F7
00
06
FB
F7
06
FA
F8
01
FA
FE
FA
FA
02
F6
06
05
02
04
FB
02
F9
F8
09
F6
FB
02
02
FE
00
03
00
F8
05
FF
08
0B
F9
09
FE
FA
02
FB
FD
06
F9
05
F9
02
FB
08
05
F5
07
05
FE
F9
09
0D
FA
02
FB
04
F9
FD
04
02
07
F8
01
04
06
F9
F9
00
FA
04
09
05
02
02
02
FB
FE
07
FC
06
04
F7
01
02
FF
08
FE
F6
04
02
02
F8
FC
F8
F5
F9
07
00
FB
FB
08
FC
F9
FD
FC
04
FC
F7
09
04
FA
00
09
F8
07
FE
F5
FF
02
00
07
FF
03
05
FD
02
F9
FA
F8
05
0A
FC
F6
05
F9
06
03
02
FE
00
00
FB
F9
F9
06
03
07
FD
FC
09
FD
FE
09
FA
03
00
F7
00
07
FE
04
01
F7
04
FF
08
06
09
04
08
FA
0B
F7
07
F7
02
01
05
08
FF
FE
FC
FA
05
05
FD
FA
05
FD
06
07
00
FC
04
FE
FB
FC
02
0C
FE
08
08
03
F8
F8
FE
FE
FA
FF
06
FD
00
01
FB
FA
FB
FB
FB
0D
FC
00
FB
FF
FF
0A
F9
02
06
FC
FE
06
FF
05
04
F7
02
F8
01
FB
05
0C
FB
FE
07
FE
FC
00
08
09
FF
F7
03
02
FD
FA
FD
FD
08
FA
04
06
01
F8
05
06
02
F9
F9
FD
09
FD
09
F8
02
FF
F9
01
F9
05
09
00
F8
F5
06
FC
01
FA
F9
06
0C
FC
08
09
05
08
00
06
04
01
0B
FE
03
F7
F9
FF
F7
F7
07
08
03
01
0C
FF
07
FC
FD
FA
F9
03
03
06
FF
F7
FB
FA
FF
02
FD
FA
FA
07
FB
08
FA
F5
07
F9
03
F7
FF
01
07
FE
FE
08
08
00
06
02
FC
06
FC
0A
F7
F5
F8
09
FE
0B
03
06
F9
05
07
09
0A
FB
01
FF
07
01
F5
00
F6
07
02
07
FE
F5
FA
FE
FA
FA
04
07
04
FA
07
FC
03
08
F9
F9
01
FD
FC
FD
FE
F8
07
07
F7
F8
F7
07
FD
FD
07
FD
00
01
03
02
09
FC
03
00
0B
05
08
FA
04
FB
00
05
06
04
0A
07
04
FE
FC
FF
07
FB
FC
09
05
05
FD
F8
F5
FA
02
07
F6
01
F9
04
03
F6
F6
FA
06
06
FF
08
03
FC
05
FD
01
FB
FE
F9
FC
FA
09
00
08
02
F8
FB
FC
01
05
FE
FC
00
FC
05
00
08
F9
05
06
09
F9
F8
00
FF
F8
FC
04
FB
FE
07
FC
FD
03
F6
FD
03
02
05
FC
05
FE
F8
FB
06
05
F9
00
FE
00
04
FE
04
01
FF
F7
09
09
03
FA
F7
FB
01
FD
00
05
07
02
FC
FE
F9
02
F9
09
FC
0A
F9
01
FE
00
F5
F8
FA
FC
00
06
FB
08
05
02
04
FA
FF
00
02
FB
06
0B
FA
FC
F8
FD
F9
FA
02
F7
FB
FE
F7
F8
FC
F9
FF
F9
06
FA
FB
02
FF
09
04
09
FD
05
FB
FF
F6
07
00
08
08
F6
FD
F8
00
06
08
FA
02
F6
FA
FA
FB
02
07
03
09
FE
F9
06
FB
05
F8
FD
06
F9
FA
05
06
02
FA
FE
05
05
09
FA
FA
07
F9
05
04
FF
FE
F6
FD
00
04
FB
09
08
07
04
00
07
01
F7
00
FA
FA
04
02
FB
FB
F9
F6
05
FB
00
F9
F7
00
01
F9
06
00
02
02
00
01
01
FB
FF
01
03
FC
0A
FF
05
05
FF
FC
00
F9
FC
FA
01
FB
FF
03
02
FE
06
FE
07
07
06
FF
02
FC
03
05
07
FD
09
FC
09
FF
FC
FB
04
FC
07
F7
03
07
07
04
0A
07
06
FB
FF
03
F7
02
FB
09
00
04
07
05
00
05
03
FB
0A
03
FE
F9
03
04
F8
FD
0B
FF
07
FF
FF
00
01
06
03
00
07
06
03
FF
FF
02
FA
00
F9
FD
04
FA
02
FF
FF
FA
03
F8
FE
04
04
01
F9
05
FD
FB
05
08
01
03
0A
01
09
06
09
FD
01
01
02
FF
08
01
FD
07
FA
0B
05
FA
00
08
FD
F9
06
FB
F6
01
01
04
01
F7
0B
FD
FC
FC
03
FE
00
04
04
01
08
02
FB
00
FE
FE
06
05
FB
0A
0B
03
FC
02
02
01
FC
F5
F6
01
F9
00
0A
0D
04
01
FB
00
02
03
00
0A
05
03
FF
FF
06
F5
F9
09
FB
02
06
F5
F6
05
09
FE
08
07
FA
FE
04
06
05
FC
03
00
FD
0A
F5
02
FE
01
02
F8
09
09
09
02
F7
07
03
09
06
06
06
03
FC
FD
FC
06
01
04
02
00
F7
F8
0A
FA
01
01
FB
FC
FB
FE
02
F8
F7
09
07
01
00
00
FD
07
01
07
00
FA
02
FB
FA
FD
03
F8
FF
FB
0B
FA
F8
F9
02
FE
FF
FA
05
02
FE
FF
FC
F7
07
07
07
F9
03
02
0C
04
08
06
06
F6
FA
F7
FC
F8
08
02
01
07
FA
FA
FA
08
09
09
06
F8
FB
FF
00
00
FD
FD
04
07
FE
02
F9
06
00
FC
FA
FD
0A
F8
05
FA
F7
FB
04
F8
07
FD
06
00
FC
F4
09
FF
F9
F8
03
FB
F7
FF
F8
07
FB
08
03
01
08
04
03
FE
F9
F5
FB
07
01
F9
FB
02
FB
06
00
05
03
00
05
FE
02
04
F9
09
F9
FD
06
01
02
02
09
F7
FA
02
FB
00
01
06
FC
FD
02
FB
0A
FE
FD
F5
FD
FD
F8
07
FC
01
FD
06
F8
FE
01
03
07
00
F9
07
09
0C
09
00
F9
FE
03
FE
FA
01
05
03
00
FD
F7
01
FF
FC
06
FD
02
07
03
01
F8
06
FF
00
FB
FC
06
04
03
F5
08
F9
F7
FE
04
08
0A
F9
04
05
F9
01
F9
05
FF
05
FB
01
F8
07
F8
01
FC
FD
01
FF
06
01
FA
FB
03
09
07
00
FF
00
02
00
FB
05
FC
F8
03
FD
FB
02
00
FC
F9
FE
F9
05
02
F8
05
F9
FA
02
09
06
06
06
09
F8
02
F7
07
F7
F6
05
01
07
FD
03
FD
FE
FC
02
FB
03
03
03
02
01
08
FA
02
01
FF
03
F8
FE
02
FF
07
07
09
02
FA
FF
F9
07
02
F7
FD
02
0A
03
F6
FF
FF
01
F7
FB
FC
00
02
05
03
FB
08
F9
F9
05
09
FD
F7
06
F8
F8
F9
09
F9
03
02
06
05
04
F7
01
02
03
FB
F9
FC
07
FC
FC
F9
F9
F8
F7
F9
F9
01
FD
FC
09
FD
F8
FE
FF
F6
F9
08
FB
01
F9
07
F8
F8
FF
09
FA
FD
FD
FF
04
FE
FE
0B
09
00
08
01
06
04
F7
F8
09
FD
FF
02
04
03
08
01
01
FE
F8
03
06
F9
09
FD
FA
07
F7
FA
FA
FF
06
03
FC
FA
F9
FA
05
F9
06
FD
03
06
04
F8
03
01
FE
F7
FD
F9
F7
FB
F8
08
06
04
FE
FD
FF
05
0A
FE
F9
FC
F8
FF
03
02
03
F8
07
00
FF
00
02
08
FD
01
FC
05
F7
FC
09
F7
FF
FF
00
03
08
01
05
F7
FA
00
FF
05
00
FE
F7
F7
F8
FE
00
04
FF
F7
FB
04
03
05
FB
02
08
07
F7
FE
01
FB
FE
F8
08
FC
03
07
04
FA
F8
07
05
00
06
FB
F8
08
00
FF
FE
04
04
07
01
08
04
05
FF
F7
04
05
06
FF
FA
F9
F9
0A
07
F7
F7
F7
FB
00
FD
01
09
00
FB
FF
FB
00
05
0A
09
08
FC
08
08
00
05
F8
09
02
02
FF
01
F9
00
FE
FF
FA
07
01
FA
F7
F7
01
05
FE
FD
FB
FB
07
0B
02
F8
05
FD
F9
F9
FE
06
07
0A
00
FB
00
F8
04
F7
FB
09
00
01
FD
FC
08
02
FB
09
