00
00
F5
F5
00
00
00
0B
0B
00
F4
F5
00
00
0A
00
0B
F4
F5
00
0B
00
F5
F5
0B
09
0A
00
F4
00
00
00
00
0B
00
00
0B
00
00
F5
F4
F3
00
00
09
F5
F1
00
F5
F5
F5
00
00
00
0C
00
00
00
00
F5
00
00
00
00
00
00
F5
00
00
F5
00
00
00
0A
00
00
0A
00
F5
0C
00
0A
00
00
0A
0A
F5
00
0B
00
0A
00
00
0B
F4
09
F5
F4
00
F4
00
F5
00
0A
00
00
F5
0B
00
F5
F3
00
00
00
00
00
00
00
F4
F3
00
00
0B
09
0B
00
00
00
