F5
21
D6
DF
DC
ED
28
20
3A
30
EC
D2
07
21
48
DD
12
F2
D0
26
38
D4
C8
D4
2D
57
60
D6
EF
11
31
CC
20
12
FE
03
33
E8
25
F3
F0
F5
01
CE
3A
EC
F7
CC
F1
E2
E3
27
DF
E4
11
F6
CE
DB
2A
D5
03
21
26
CF
DD
CB
C7
EE
36
E3
24
02
E1
2E
20
EA
30
E7
C6
36
27
59
FA
2F
1E
40
C8
EC
2E
1A
4B
2A
13
31
ED
33
CE
EF
24
ED
0F
D0
D4
66
DA
F8
E8
23
15
DB
F5
DA
1C
13
F7
12
F9
EA
EA
F6
F2
23
1F
3A
1F
E0
E4
36
